<unk>	0
<s>	0
</s>	0
<0x00>	0
<0x01>	0
<0x02>	0
<0x03>	0
<0x04>	0
<0x05>	0
<0x06>	0
<0x07>	0
<0x08>	0
<0x09>	0
<0x0A>	0
<0x0B>	0
<0x0C>	0
<0x0D>	0
<0x0E>	0
<0x0F>	0
<0x10>	0
<0x11>	0
<0x12>	0
<0x13>	0
<0x14>	0
<0x15>	0
<0x16>	0
<0x17>	0
<0x18>	0
<0x19>	0
<0x1A>	0
<0x1B>	0
<0x1C>	0
<0x1D>	0
<0x1E>	0
<0x1F>	0
<0x20>	0
<0x21>	0
<0x22>	0
<0x23>	0
<0x24>	0
<0x25>	0
<0x26>	0
<0x27>	0
<0x28>	0
<0x29>	0
<0x2A>	0
<0x2B>	0
<0x2C>	0
<0x2D>	0
<0x2E>	0
<0x2F>	0
<0x30>	0
<0x31>	0
<0x32>	0
<0x33>	0
<0x34>	0
<0x35>	0
<0x36>	0
<0x37>	0
<0x38>	0
<0x39>	0
<0x3A>	0
<0x3B>	0
<0x3C>	0
<0x3D>	0
<0x3E>	0
<0x3F>	0
<0x40>	0
<0x41>	0
<0x42>	0
<0x43>	0
<0x44>	0
<0x45>	0
<0x46>	0
<0x47>	0
<0x48>	0
<0x49>	0
<0x4A>	0
<0x4B>	0
<0x4C>	0
<0x4D>	0
<0x4E>	0
<0x4F>	0
<0x50>	0
<0x51>	0
<0x52>	0
<0x53>	0
<0x54>	0
<0x55>	0
<0x56>	0
<0x57>	0
<0x58>	0
<0x59>	0
<0x5A>	0
<0x5B>	0
<0x5C>	0
<0x5D>	0
<0x5E>	0
<0x5F>	0
<0x60>	0
<0x61>	0
<0x62>	0
<0x63>	0
<0x64>	0
<0x65>	0
<0x66>	0
<0x67>	0
<0x68>	0
<0x69>	0
<0x6A>	0
<0x6B>	0
<0x6C>	0
<0x6D>	0
<0x6E>	0
<0x6F>	0
<0x70>	0
<0x71>	0
<0x72>	0
<0x73>	0
<0x74>	0
<0x75>	0
<0x76>	0
<0x77>	0
<0x78>	0
<0x79>	0
<0x7A>	0
<0x7B>	0
<0x7C>	0
<0x7D>	0
<0x7E>	0
<0x7F>	0
<0x80>	0
<0x81>	0
<0x82>	0
<0x83>	0
<0x84>	0
<0x85>	0
<0x86>	0
<0x87>	0
<0x88>	0
<0x89>	0
<0x8A>	0
<0x8B>	0
<0x8C>	0
<0x8D>	0
<0x8E>	0
<0x8F>	0
<0x90>	0
<0x91>	0
<0x92>	0
<0x93>	0
<0x94>	0
<0x95>	0
<0x96>	0
<0x97>	0
<0x98>	0
<0x99>	0
<0x9A>	0
<0x9B>	0
<0x9C>	0
<0x9D>	0
<0x9E>	0
<0x9F>	0
<0xA0>	0
<0xA1>	0
<0xA2>	0
<0xA3>	0
<0xA4>	0
<0xA5>	0
<0xA6>	0
<0xA7>	0
<0xA8>	0
<0xA9>	0
<0xAA>	0
<0xAB>	0
<0xAC>	0
<0xAD>	0
<0xAE>	0
<0xAF>	0
<0xB0>	0
<0xB1>	0
<0xB2>	0
<0xB3>	0
<0xB4>	0
<0xB5>	0
<0xB6>	0
<0xB7>	0
<0xB8>	0
<0xB9>	0
<0xBA>	0
<0xBB>	0
<0xBC>	0
<0xBD>	0
<0xBE>	0
<0xBF>	0
<0xC0>	0
<0xC1>	0
<0xC2>	0
<0xC3>	0
<0xC4>	0
<0xC5>	0
<0xC6>	0
<0xC7>	0
<0xC8>	0
<0xC9>	0
<0xCA>	0
<0xCB>	0
<0xCC>	0
<0xCD>	0
<0xCE>	0
<0xCF>	0
<0xD0>	0
<0xD1>	0
<0xD2>	0
<0xD3>	0
<0xD4>	0
<0xD5>	0
<0xD6>	0
<0xD7>	0
<0xD8>	0
<0xD9>	0
<0xDA>	0
<0xDB>	0
<0xDC>	0
<0xDD>	0
<0xDE>	0
<0xDF>	0
<0xE0>	0
<0xE1>	0
<0xE2>	0
<0xE3>	0
<0xE4>	0
<0xE5>	0
<0xE6>	0
<0xE7>	0
<0xE8>	0
<0xE9>	0
<0xEA>	0
<0xEB>	0
<0xEC>	0
<0xED>	0
<0xEE>	0
<0xEF>	0
<0xF0>	0
<0xF1>	0
<0xF2>	0
<0xF3>	0
<0xF4>	0
<0xF5>	0
<0xF6>	0
<0xF7>	0
<0xF8>	0
<0xF9>	0
<0xFA>	0
<0xFB>	0
<0xFC>	0
<0xFD>	0
<0xFE>	0
<0xFF>	0
▁བ	-0
▁ག	-1
▁ད	-2
▁ས	-3
▁ར	-4
▁ལ	-5
▁པ	-6
▁འ	-7
▁མ	-8
འི	-9
གས	-10
ྱི	-11
ོད	-12
ོང	-13
▁ཡ	-14
▁ཁ	-15
▁ཀ	-16
▁དང	-17
▁ན	-18
▁ཆ	-19
▁བྱ	-20
▁ཚ	-21
ྒྱ	-22
ོན	-23
ུང	-24
ིག	-25
▁ཀྱི	-26
ེད	-27
▁ཞ	-28
ིན	-29
▁སྐ	-30
▁རྒྱ	-31
▁ཐ	-32
ོས	-33
▁པའི	-34
▁རི	-35
▁བས	-36
ོགས	-37
ོར	-38
ོངས	-39
▁གི	-40
▁ཕ	-41
ོག	-42
ུལ	-43
▁འད	-44
▁སྤ	-45
▁བར	-46
▁པར	-47
▁གྲ	-48
▁གྱི	-49
▁དུ	-50
ེན	-51
ེས	-52
ིང	-53
▁འག	-54
མས	-55
ུན	-56
▁གས	-57
▁བོད	-58
▁དབ	-59
▁མི	-60
▁ནས	-61
▁དག	-62
▁ལས	-63
▁གན	-64
▁ཤ	-65
▁དེ	-66
ུགས	-67
ྲི	-68
ོབ	-69
▁བྱས	-70
ོལ	-71
▁འབ	-72
▁ཡོད	-73
▁བཅ	-74
ངས	-75
ུར	-76
▁སྒ	-77
▁སྐྱ	-78
ོའི	-79
▁ཏ	-80
བས	-81
▁གཞ	-82
▁ལྗ	-83
▁བྱེད	-84
ུས	-85
▁ལྗོངས	-86
▁སླ	-87
▁དབང	-88
ེལ	-89
▁ཅ	-90
▁ཟ	-91
▁སློབ	-92
▁རྩ	-93
▁ཉ	-94
ེར	-95
ུག	-96
ྲུང	-97
▁གནས	-98
▁འཕ	-99
▁རིགས	-100
▁བའི	-101
▁ལྟ	-102
▁སུ	-103
▁སྟ	-104
ིས	-105
▁གཏ	-106
▁ཚོགས	-107
▁ཆེན	-108
▁ང	-109
▁མཐ	-110
▁ཞིག	-111
▁བཀ	-112
▁རྣ	-113
▁འཛ	-114
▁ཡིན	-115
▁པོ	-116
▁བཞ	-117
▁རང	-118
▁རེད	-119
ུབ	-120
▁ནི	-121
▁དྲ	-122
▁ལྷ	-123
▁ཁྱ	-124
▁དོན	-125
▁དམ	-126
▁གིས	-127
▁རྒྱུ	-128
▁འཇ	-129
▁མང	-130
▁དཔ	-131
▁འབྲ	-132
▁འཁ	-133
▁འདི	-134
▁མཚ	-135
▁རྒྱལ	-136
ྱོད	-137
▁ཡིག	-138
▁ལོ	-139
▁སྒྲ	-140
▁སྔ	-141
ྱང	-142
▁ཁྲི	-143
▁བཟ	-144
▁གཞི	-145
▁རིག	-146
ྱུར	-147
▁སྤྱི	-148
▁ཀྲུང	-149
▁གཉ	-150
▁སྤྱོད	-151
ུའ	-152
▁ཁང	-153
▁ནང	-154
ུད	-155
▁གཅ	-156
▁སྣ	-157
▁ཞིང	-158
▁རྣམས	-159
▁ཧ	-160
▁འཕྲ	-161
▁མེད	-162
▁ཀྱིས	-163
▁ཆོག	-164
▁གླ	-165
▁སྐྱོང	-166
▁བྱུང	-167
▁ཚད	-168
▁དུས	-169
▁འགྲ	-170
▁གསར	-171
▁སོགས	-172
▁ཀྱང	-173
▁ཕྱ	-174
▁ཞི	-175
▁ཨ	-176
▁གྲོང	-177
▁དགོས	-178
▁པས	-179
▁ཁུལ	-180
▁བད	-181
▁སྡ	-182
▁བསྟ	-183
▁ལྡ	-184
ེགས	-185
▁ཏེ	-186
▁མཁ	-187
▁སྦ	-188
▁གཙ	-189
▁རྟ	-190
▁གཏོང	-191
▁བཞིན	-192
ུམ	-193
▁ཆེ	-194
▁གོང	-195
▁ཁྲ	-196
▁རྫ	-197
ྲིད	-198
▁ཕན	-199
▁རིས	-200
▁གཅིག	-201
▁བརྒྱ	-202
▁སྨ	-203
▁ཐོན	-204
▁ལམ	-205
▁ལག	-206
▁ཡུལ	-207
▁བཅས	-208
▁གཉིས	-209
▁རིམ	-210
▁བཀོད	-211
▁ཡང	-212
▁འཕྲིན	-213
▁སྲིད	-214
▁བཏ	-215
▁གོའི	-216
▁ཞིབ	-217
▁སྐོར	-218
▁གྱིས	-219
▁བཤ	-220
▁ཐོག	-221
▁ཕྱི	-222
▁གྲོས	-223
▁ལྡན	-224
▁བཅོལ	-225
▁བླ	-226
▁ཏུ	-227
▁ཇ	-228
▁ཡོངས	-229
▁སྲ	-230
▁ཁག	-231
▁སྒྲིག	-232
▁སྙ	-233
▁འདིར	-234
▁འཚ	-235
ོམ	-236
▁འཛུགས	-237
ྲུན	-238
▁འཛིན	-239
▁རྒྱས	-240
ུངས	-241
▁ཟླ	-242
▁ཕྱོགས	-243
▁འཕེལ	-244
ེང	-245
▁གསོ	-246
▁སྔོན	-247
▁སྐབས	-248
▁སྲུང	-249
▁ཆོས	-250
▁ཆུ	-251
▁ཤེས	-252
▁མོ	-253
▁ཚན	-254
▁འབྲེལ	-255
▁སྦྱ	-256
▁འབྱ	-257
▁ལྟར	-258
▁རྗ	-259
▁ལྟེ	-260
▁འཇགས	-261
▁བསྡ	-262
▁འགྱུར	-263
ུའུ	-264
▁ལེགས	-265
ེབས	-266
▁སྤེལ	-267
▁བསྐ	-268
▁མཛ	-269
▁མཆ	-270
▁གསུམ	-271
▁རེ	-272
▁ལུགས	-273
▁ཐུབ	-274
▁དམངས	-275
▁རྣམ	-276
▁ལེན	-277
▁ཚུན	-278
▁རིང	-279
ིགས	-280
▁རྒྱུན	-281
▁འགན	-282
▁དགོངས	-283
▁བརྟ	-284
▁བུ	-285
▁དངོས	-286
▁གྲྭ	-287
▁གྲངས	-288
▁བཀོལ	-289
▁གཞུང	-290
▁རྩལ	-291
ེངས	-292
▁དཀ	-293
▁ཙ	-294
▁ཤུགས	-295
▁མོལ	-296
▁ནུས	-297
▁གཙོ	-298
▁གནང	-299
▁ཅན	-300
▁བདེ	-301
▁ཐང	-302
▁ཆེད	-303
▁སྤྲ	-304
▁སྨན	-305
ེམས	-306
▁ཏང	-307
▁ཚང	-308
▁འདྲ	-309
▁ཚུལ	-310
ིད	-311
▁མཚོ	-312
ུའོ	-313
▁གླིང	-314
▁སྐྲུན	-315
▁ཁྱེར	-316
▁གོ	-317
▁ཁབ	-318
▁ཞུའོ	-319
▁བརྩ	-320
▁འཐ	-321
▁བཙ	-322
▁བོ	-323
▁བཏང	-324
▁རྫོང	-325
▁སྒོ	-326
▁མཉ	-327
▁རྐ	-328
▁བཅོས	-329
▁བཤད	-330
▁སྟོན	-331
▁ཤིང	-332
༢༠	-333
▁རྗེས	-334
▁མད	-335
▁རུ	-336
▁མཐོ	-337
▁གཟ	-338
▁རྒ	-339
▁མཐུན	-340
▁དགེ	-341
▁ཁྲིད	-342
▁དངུལ	-343
▁གང	-344
▁མཉམ	-345
▁སྡེ	-346
▁ཆུང	-347
▁སྐད	-348
▁འཆ	-349
▁མག	-350
▁བཟོ	-351
▁ཞེས	-352
▁མའི	-353
▁སྐུལ	-354
▁རྡ	-355
▁འགོད	-356
▁ཡོང	-357
▁གྲུབ	-358
▁སྟེ	-359
▁བསྟན	-360
▁ཉིན	-361
ུའི	-362
▁ཁྱབ	-363
▁ཐབས	-364
▁སྦྱོང	-365
▁ཁྲིམས	-366
▁སྒོར	-367
▁དེའི	-368
▁པོའི	-369
▁ཕྲ	-370
▁ངོ	-371
ྱད	-372
▁བརྗ	-373
▁ཚེ	-374
▁འཇུག	-375
▁ཐད	-376
▁གད	-377
▁ཀྲ	-378
▁གསལ	-379
▁འཁོར	-380
▁ཐེངས	-381
▁དཔེ	-382
▁དུང	-383
▁དཔལ	-384
▁ཙམ	-385
▁ཡོན	-386
▁སྒྱ	-387
▁འགྲོ	-388
▁བྲ	-389
▁སེམས	-390
▁སྲོལ	-391
▁ཁྲོད	-392
▁འབྱོར	-393
▁ཚེས	-394
ོམས	-395
▁བཞི	-396
▁ཅིང	-397
▁ནད	-398
▁ཞུགས	-399
▁ལྔ	-400
▁གྱུར	-401
▁བསམ	-402
▁ཁུངས	-403
▁རྒྱུས	-404
▁མཁན	-405
▁གནད	-406
▁ཟད	-407
▁སོ	-408
▁སྐྱོབ	-409
▁དབྱ	-410
▁མངོན	-411
▁ཚོང	-412
▁རྩོམ	-413
▁བསྒ	-414
▁གཞན	-415
▁བརྒྱུད	-416
▁བཅུ	-417
▁སྐྱོར	-418
▁སྔར	-419
▁ཁམས	-420
▁དོ	-421
▁བློ	-422
▁བཟང	-423
▁ཐག	-424
▁འགོ	-425
▁ཡི	-426
▁རྨ	-427
ྱེན	-428
▁རྒན	-429
▁རླ	-430
▁༡	-431
▁མར	-432
▁འདུག	-433
▁དགོན	-434
▁ཁོར	-435
▁ཡུག	-436
▁འཁྱ	-437
▁རབས	-438
▁ལྷག	-439
▁མིན	-440
▁ཚོད	-441
▁ཁྱད	-442
▁གལ	-443
▁གཡ	-444
▁ཞུ	-445
▁རྒྱུད	-446
▁འཚོ	-447
▁ཉིད	-448
▁ཁོང	-449
▁དཔྱད	-450
▁དར	-451
▁ཉེ	-452
ྲིལ	-453
▁བཟུང	-454
▁འདུ	-455
▁ཆགས	-456
འང	-457
▁ཐོབ	-458
▁རྐྱེན	-459
▁སྤྲོད	-460
▁འཆར	-461
▁མིག	-462
ཉིན	-463
▁ཨུ	-464
▁འབྲས	-465
▁བསྟར	-466
▁བསྒྲ	-467
▁རྒྱུར	-468
▁གཤ	-469
༠༠	-470
▁སྐུ	-471
▁འབྲོག	-472
▁དགའ	-473
▁སྙན	-474
▁༢༠	-475
▁མཆན	-476
▁སྒྲུབ	-477
▁རྟེན	-478
▁སྐྱེ	-479
▁ཇུས	-480
▁ངང	-481
▁ཆས	-482
▁གཏན	-483
▁ཞབས	-484
▁ཧྲ	-485
▁མཐའ	-486
འུ	-487
▁ཁོངས	-488
▁ཁྱོན	-489
▁ཁྱི	-490
▁བརྗོད	-491
▁རིན	-492
▁དམིགས	-493
▁ཚོས	-494
▁གཉེར	-495
▁ལྷན	-496
▁གཞོན	-497
▁ཁེ	-498
▁འཁོད	-499
▁ཅི	-500
▁མཚན	-501
▁བརྟན	-502
▁གཙང	-503
▁རྫས	-504
▁ཇེ	-505
▁ཟིན	-506
▁མཚོན	-507
▁ངོས	-508
▁དཀར	-509
▁སྐྱེས	-510
▁ངེས	-511
▁ཁྱིམ	-512
▁དེར	-513
▁པོར	-514
▁སྟེང	-515
▁སྣང	-516
▁ནན	-517
འོ	-518
▁ཁོ	-519
▁ལུས	-520
▁ཚོ	-521
▁ཀུན	-522
▁འདོན	-523
▁རོགས	-524
▁བྱང	-525
▁བྱི	-526
▁བརྟེན	-527
▁མཛད	-528
▁གློག	-529
▁དབྱང	-530
▁རྟོགས	-531
▁མཇ	-532
▁སྡོད	-533
▁ཟབ	-534
▁སི	-535
▁ཆེས	-536
ལོའི	-537
▁སའི	-538
▁མེ	-539
▁འཐུས	-540
▁ཕྱིན	-541
▁འབྱུང	-542
▁ཆོགཁ	-543
▁ཅེས	-544
▁མིང	-545
▁ཉམས	-546
▁ཚགས	-547
▁སྣོན	-548
▁ཟེར	-549
▁འདེད	-550
▁བག	-551
▁བརྡ	-552
▁ཉུང	-553
▁གསོའི	-554
▁གར	-555
▁གཅོད	-556
▁བསྐྲུན	-557
▁བརྙ	-558
▁ཕྱིར	-559
▁ཧྭ	-560
▁མཁས	-561
▁འཁྲ	-562
▁རེར	-563
▁རོལ	-564
▁གཞིའི	-565
▁ཆད	-566
▁ཡིས	-567
ྲིས	-568
▁ནོར	-569
▁ཤིག	-570
▁བསྒྲགས	-571
▁བཞག	-572
▁རྩེ	-573
དང	-574
▁མཛེས	-575
▁ཀླ	-576
▁ལོའི	-577
▁མཐོང	-578
ལོར	-579
▁འཇོག	-580
▁སོང	-581
པའི	-582
▁ཚོའི	-583
▁སྒྱུ	-584
▁འབྲིང	-585
▁བསྐྱ	-586
▁བཙུགས	-587
▁མྱ	-588
▁ཡུན	-589
▁ལྕ	-590
▁རྡོ	-591
▁རྩིས	-592
▁ཅིག	-593
▁གྲགས	-594
▁བཤེར	-595
▁བརྒྱད	-596
▁ཉི	-597
▁བསྡུས	-598
▁བརྙན	-599
▁མོའི	-600
▁བདག	-601
▁སྒྱུར	-602
ལྷ	-603
▁དེས	-604
▁ཝ	-605
ྒྱུར	-606
▁འབབ	-607
▁རྗེ	-608
▁མཚམས	-609
▁འདིའི	-610
▁སྲོག	-611
▁བསྒྱུར	-612
▁འགོག	-613
▁ཚོར	-614
▁གཏོད	-615
▁ལྷོ	-616
▁རྟགས	-617
▁སར	-618
▁དེབ	-619
▁དཀའ	-620
▁སྟོང	-621
▁བྱིས	-622
▁ཤིན	-623
▁སྙིང	-624
▁དབུལ	-625
▁སྤྱིའི	-626
▁ལེ	-627
▁ཆབ	-628
▁རབ	-629
ྱིད	-630
▁སྦྱོར	-631
▁ཅང	-632
▁གནམ	-633
▁སྐྱེད	-634
▁དྲུག	-635
▁གངས	-636
▁དབྱི	-637
▁ཕྱུར	-638
▁ནགས	-639
▁མས	-640
▁བཀྲ	-641
▁བརྩམས	-642
▁ལོན	-643
▁ཨུད	-644
▁རྒྱུའི	-645
▁གཞིགས	-646
▁འདོད	-647
▁ཤུལ	-648
▁རྨང	-649
▁བསྡུར	-650
▁གེ	-651
▁མིའི	-652
▁བཏོན	-653
▁རྒྱུགས	-654
▁༢༠༡	-655
▁ཡག	-656
▁མྱོང	-657
▁རླུང	-658
▁ཆའི	-659
ཞེས	-660
▁དབྱངས	-661
▁སླེབས	-662
ལྷག	-663
▁འགུལ	-664
▁མཇུག	-665
▁དེང	-666
▁མདོ	-667
▁ལི	-668
▁རེའི	-669
ོབས	-670
▁འཛམ	-671
▁ཆེར	-672
▁གསུངས	-673
ེམ	-674
▁སྣེ	-675
▁བསྡུ	-676
▁སྒྲོལ	-677
▁རྩྭ	-678
▁བོའི	-679
▁པོས	-680
▁ནག	-681
▁མཁོ	-682
▁ཡིད	-683
▁གླེང	-684
▁རྒྱབ	-685
▁ཤར	-686
▁ཀྲུའུ	-687
▁མགོ	-688
▁འོག	-689
▁ཤས	-690
▁ཚུགས	-691
▁ཡར	-692
▁རྙ	-693
▁ཆེའི	-694
▁ལགས	-695
▁བལ	-696
▁རུང	-697
▁འདྲེན	-698
▁སྤུས	-699
▁རྒྱག	-700
▁གཤིས	-701
▁མཐུད	-702
▁འཕར	-703
▁ཧྲུའུ	-704
▁རིའི	-705
▁སུམ	-706
▁ཅུས	-707
▁ཚིགས	-708
▁གྲྭའི	-709
▁སྟོབས	-710
▁འཐབ	-711
▁སྦྲ	-712
▁སྐྱིད	-713
འད	-714
▁གནའ	-715
▁སྙོམས	-716
▁དམག	-717
▁ཁུར	-718
▁ཀྲང	-719
▁སྐྱོད	-720
▁འཁྲབ	-721
▁བཟོས	-722
▁མཚུངས	-723
▁ནམ	-724
▁འགྲན	-725
▁ཅིན	-726
▁ཤོས	-727
▁མཆོག	-728
▁ཆར	-729
▁བཞུགས	-730
▁བརྩོན	-731
▁ཤང	-732
▁འོས	-733
▁བོར	-734
▁ཤིས	-735
ིར	-736
▁འབྲི	-737
▁པེ	-738
▁གཏམ	-739
▁བདུན	-740
▁ཏན	-741
▁ཕུལ	-742
ྱོགས	-743
ེག	-744
▁ཐེབས	-745
▁ངལ	-746
▁ཕོ	-747
▁དང་	-748
▁མཛོད	-749
▁འཁྱོལ	-750
▁ཕེབས	-751
▁གཟུགས	-752
▁སྒང	-753
▁བཅུད	-754
▁བསྟེན	-755
▁ནུབ	-756
▁ཇི	-757
▁ཐོ	-758
▁འདུས	-759
▁རེས	-760
▁ལུང	-761
▁པུའུ	-762
▁བསླ	-763
ཡོད	-764
▁བཅའ	-765
ེབ	-766
▁བརྟག	-767
▁བྲིས	-768
▁གྲུ	-769
▁སྒྲིལ	-770
▁མངའ	-771
▁གནོད	-772
▁སྐྱོན	-773
▁འདྲི	-774
▁འདུན	-775
▁བབ	-776
▁ཐུན	-777
▁མགྱོགས	-778
▁ཚལ	-779
▁སྐར	-780
▁སྟངས	-781
▁ཚིག	-782
▁གཏིང	-783
▁གྱ	-784
▁ཡན	-785
▁མོས	-786
▁མཆོད	-787
▁མྱུར	-788
▁སྡུག	-789
▁སྟབས	-790
▁ཉེན	-791
▁བུའི	-792
▁དཔོན	-793
▁གསེར	-794
▁ཞུས	-795
▁ཕུན	-796
▁འཕྲོད	-797
▁༢	-798
▁ཅུང	-799
▁མུ	-800
▁ཀུང	-801
▁འགྲུལ	-802
▁བཙན	-803
▁རྡལ	-804
▁ལྕགས	-805
▁དམར	-806
▁འོད	-807
▁གཞིས	-808
▁བསྟུན	-809
▁མཐོར	-810
▁གའི	-811
▁རྟོག	-812
▁ལོར	-813
ལོ	-814
▁གཏོགས	-815
▁ངག	-816
▁གདན	-817
▁གོས	-818
▁བེད	-819
▁དབྱེ	-820
▁རྐང	-821
▁བླངས	-822
འདིར	-823
▁བསྐྱོད	-824
▁ཉོ	-825
▁ལྟའི	-826
▁ཀའི	-827
▁གསུང	-828
▁སྤྱད	-829
▁འདེགས	-830
▁གཞིར	-831
▁འདེབས	-832
▁བཀའ	-833
▁མཐར	-834
▁རྩའི	-835
▁འབོར	-836
▁ཟས	-837
▁མཁའ	-838
▁སོའི	-839
▁གུང	-840
▁བགྲ	-841
▁ཉིང	-842
▁ཏོག	-843
▁༣	-844
▁བལྟ	-845
འམ	-846
བོད	-847
▁འཛོམས	-848
▁འགག	-849
▁རླངས	-850
▁མོང	-851
▁ཧུར	-852
▁ཨང	-853
▁འཁྲི	-854
▁ཞུའི	-855
▁ཆུའི	-856
▁འཁྱོངས	-857
▁དགུ	-858
▁གྲས	-859
▁ལན	-860
▁རའི	-861
▁སྟོད	-862
▁མན	-863
▁དུག	-864
༡༠	-865
▁དྲིལ	-866
▁ཐིང	-867
▁བཞེངས	-868
ྒལ	-869
▁དབུ	-870
▁འཁེལ	-871
▁བརྒྱབ	-872
ནས	-873
▁གླུ	-874
▁འབུམ	-875
▁སྣོད	-876
▁ནའང	-877
▁དྲག	-878
▁ཚབ	-879
▁བསྡོམས	-880
▁༡༩	-881
▁ཕྲུག	-882
▁གཟིགས	-883
▁སེར	-884
▁སྟེགས	-885
▁ཐུགས	-886
▁བརྒལ	-887
▁མདུན	-888
▁མགྲ	-889
▁ལྡོག	-890
▁དུད	-891
▁སྤྲོ	-892
▁དད	-893
▁འབེབས	-894
▁འགལ	-895
འེ	-896
▁སངས	-897
▁འགྲེམ	-898
▁པད	-899
▁འོན	-900
▁བརྗེ	-901
▁རྔ	-902
▁ལོག	-903
▁ཕྱག	-904
▁མོད	-905
ྱིལ	-906
▁འཁུར	-907
▁ཕིང	-908
▁རྩོད	-909
▁འགྲུབ	-910
▁འགྲེམས	-911
༡༢	-912
▁བོན	-913
▁འཚོལ	-914
▁འཚོགས	-915
▁༢༠༠	-916
▁དྭ	-917
▁ཁྲོམ	-918
ཅེས	-919
▁གསེབ	-920
▁བསྐྱར	-921
▁གཞས	-922
ིལ	-923
▁ཟུང	-924
▁རྙིང	-925
▁དྲན	-926
▁རྒྱན	-927
བར	-928
▁བྲག	-929
▁ཀར	-930
▁ཤོག	-931
▁འདུའི	-932
▁འབད	-933
▁དྲོད	-934
▁སྐྱེལ	-935
▁དབྱར	-936
▁ཕྲེང	-937
▁ཆག	-938
▁དགུན	-939
ཟིན	-940
▁བླང	-941
▁དབུས	-942
▁ཁྲག	-943
▁གུ	-944
▁ངན	-945
▁བྲང	-946
▁འདམ	-947
▁ལའི	-948
▁ཀློག	-949
▁གསབ	-950
▁གཅེས	-951
▁འདས	-952
▁ཕྱུག	-953
▁གྲོགས	-954
▁བཅོ	-955
▁ལྷིང	-956
▁འགྲི	-957
▁རོང	-958
ིངས	-959
ཙམ	-960
▁བཟའ	-961
▁བྱེ	-962
༡༡	-963
▁བུད	-964
▁བརྩི	-965
▁བྱམས	-966
▁མཐོའི	-967
▁དཔེར	-968
▁སྒྲིགའདིར	-969
▁ཁྲོན	-970
▁བྲལ	-971
▁སྒོའི	-972
▁ཞིས	-973
▁ཚུད	-974
▁མཛུབ	-975
▁བརྩེ	-976
ལས	-977
▁བཙུན	-978
▁སོར	-979
▁སེལ	-980
▁བྲོ	-981
▁དོད	-982
▁༤	-983
▁འདེམས	-984
▁བཅད	-985
▁༥	-986
▁དཔུང	-987
▁སྒོས	-988
▁ཀན	-989
▁འགའ	-990
▁བསལ	-991
▁མདའ	-992
▁མོར	-993
▁ཕལ	-994
▁ཁུ	-995
▁ཉེས	-996
ཡི	-997
▁མཇལ	-998
▁བསླབ	-999
དེ	-1000
▁ཡོ	-1001
ེའུ	-1002
▁གཞག	-1003
▁བསྐྱེད	-1004
▁དམའ	-1005
▁ཐམས	-1006
▁ཆོད	-1007
གྱི	-1008
▁ཞན	-1009
▁ཅད	-1010
▁གྲྭར	-1011
▁སྡོམ	-1012
▁སྤོ	-1013
▁ཇོ	-1014
▁ཞིན	-1015
▁ལྔའི	-1016
▁ཐར	-1017
▁འབྱེད	-1018
▁དབྱིན	-1019
▁སྒྲུང	-1020
▁སྤྱིར	-1021
▁སྒྲོག	-1022
▁མགྲོན	-1023
རྒྱ	-1024
▁ཟུར	-1025
▁ལའང	-1026
▁འཇིག	-1027
▁ཞལ	-1028
▁ཐུང	-1029
▁ཨེ	-1030
▁རྩེད	-1031
▁ལྗང	-1032
▁ཀོང	-1033
▁སྦྲེལ	-1034
▁སྡུད	-1035
▁རོ	-1036
▁ཤོར	-1037
▁སླར	-1038
ྱིན	-1039
▁སྨི	-1040
༠༠༠	-1041
▁ཧྲིལ	-1042
▁འཕྲུལ	-1043
▁བརླ	-1044
▁གཏེར	-1045
ྲིགས	-1046
▁གྲོན	-1047
▁བཅུག	-1048
▁འཆམ	-1049
▁མཁར	-1050
▁འོང	-1051
▁སུའུ	-1052
▁མཚར	-1053
▁ཁར	-1054
༡༤	-1055
༡༥	-1056
▁འགྲིམ	-1057
▁ཚེས༢	-1058
▁ཕྲག	-1059
▁བཙོག	-1060
▁བསྲ	-1061
▁འགྲེལ	-1062
▁སྔོ	-1063
▁ཐིག	-1064
▁ཕྱུགས	-1065
ྱན	-1066
༡༩	-1067
▁སྒེར	-1068
ཀྲུང	-1069
▁བཞིའི	-1070
▁ཕུང	-1071
༡༣	-1072
▁ཟོག	-1073
▁གསང	-1074
▁ཏིག	-1075
▁༦	-1076
▁རྒྱུག	-1077
▁བུར	-1078
▁འབུལ	-1079
▁རྫོགས	-1080
▁ཆང	-1081
▁ལོངས	-1082
▁གྱོན	-1083
▁འགྲམ	-1084
▁གསོལ	-1085
▁མུའུ	-1086
གྲ	-1087
ཀྱི	-1088
▁བཀག	-1089
བཅ	-1090
▁ཁའི	-1091
▁སྨད	-1092
▁རླབས	-1093
▁སྤོས	-1094
▁ཐེག	-1095
པར	-1096
▁རྩི	-1097
▁རྒྱང	-1098
ུབས	-1099
▁བསྒྲིགས	-1100
▁ཟློས	-1101
▁བལྟས	-1102
▁ཞང	-1103
▁ཟི	-1104
▁འཕྲད	-1105
▁སློང	-1106
▁མདོག	-1107
▁དྲི	-1108
▁ཁྲལ	-1109
▁སྡེའི	-1110
ཚེས	-1111
▁མགོན	-1112
▁ཕོག	-1113
▁བཤམས	-1114
གི	-1115
▁རྒོལ	-1116
▁དཀྱིལ	-1117
▁གཙུག	-1118
▁དྲུང	-1119
▁འོངས	-1120
▁ཕྲུ	-1121
འཕ	-1122
▁ཕབ	-1123
▁དྲང	-1124
▁འབུ	-1125
▁རེན	-1126
▁མེས	-1127
▁སྤྲད	-1128
▁གཉེན	-1129
▁བསྔ	-1130
▁གཏད	-1131
▁སྐྲ	-1132
ཡིན	-1133
▁བདེན	-1134
▁བསྟོད	-1135
བཅས	-1136
▁རྐྱང	-1137
▁རམ	-1138
▁སྨོན	-1139
▁༧	-1140
ློབ	-1141
▁སྟག	-1142
▁འཐུང	-1143
▁གོམ	-1144
▁ཉེར	-1145
▁འཚམ	-1146
▁འཕགས	-1147
▁བསྐོར	-1148
▁གོམས	-1149
▁དཔྱོད	-1150
▁དཀོན	-1151
▁སེ	-1152
▁འཆད	-1153
▁གྲང	-1154
▁གསོག	-1155
▁ཉར	-1156
▁གདོང	-1157
▁དཔའ	-1158
▁ཏི	-1159
▁ཡེ	-1160
▁སྒྲོན	-1161
▁ཆིང	-1162
▁ཚབས	-1163
▁འབོད	-1164
▁ཉན	-1165
▁མཚོའི	-1166
ཏང	-1167
▁རས	-1168
▁བཅར	-1169
▁སྲས	-1170
▁འཚམས	-1171
▁པའམ	-1172
▁སྦྱངས	-1173
▁སྣའི	-1174
▁བརྐ	-1175
▁འཇོན	-1176
▁བྷ	-1177
▁བབས	-1178
▁བརྡར	-1179
▁དྲོ	-1180
▁འཚེ	-1181
▁ནིང	-1182
▁བསུ	-1183
▁རག	-1184
▁བསོད	-1185
▁༨	-1186
▁ངས	-1187
བྱ	-1188
▁སོན	-1189
ོའུ	-1190
▁གླང	-1191
▁གཏོར	-1192
▁འཇམ	-1193
▁བྱའི	-1194
▁ཟམ	-1195
▁ཧྭའི	-1196
▁བསྣ	-1197
▁འབྲུ	-1198
▁འབར	-1199
▁ཡངས	-1200
༣༠	-1201
▁རྡུལ	-1202
▁སྦྱར	-1203
▁དཔག	-1204
▁སྐལ	-1205
▁ཐོགས	-1206
▁རྙེད	-1207
▁ཀླུ	-1208
▁གཟབ	-1209
▁སྔའི	-1210
▁ཀྱིན	-1211
▁ཐེ	-1212
▁བཀུར	-1213
▁རྩོལ	-1214
▁བྱོན	-1215
▁རིལ	-1216
ིམ	-1217
▁དབར	-1218
▁པའོ	-1219
▁སྣས	-1220
▁ཕུགས	-1221
▁ཏུང	-1222
▁ཐུག	-1223
▁འཇིགས	-1224
▁བཏབ	-1225
▁སེང	-1226
▁ཁྱེད	-1227
▁ཚོན	-1228
▁སྤྲུལ	-1229
▁ཁས	-1230
▁ཁོས	-1231
▁ཁྲུང	-1232
▁ཕྱེ	-1233
▁བཏགས	-1234
▁སྦྱིན	-1235
▁རེག	-1236
༠༠ལྷག	-1237
▁༢༠༡༤	-1238
▁ནོ	-1239
▁ཕྱིའི	-1240
▁ཁྱོད	-1241
▁གཡུ	-1242
▁དབྱིབས	-1243
▁སྔགས	-1244
▁ཝང	-1245
▁དགྲ	-1246
འཕར	-1247
▁ཅུ	-1248
▁ཆབས	-1249
▁གཟེངས	-1250
བའི	-1251
▁ཞོར	-1252
▁སྒམ	-1253
▁འདིས	-1254
▁ནུ	-1255
▁འཁྲིད	-1256
▁འཕུར	-1257
▁གཟའ	-1258
▁སྙད	-1259
▁བསྒྲུབ	-1260
▁འབྲུག	-1261
▁ཆུས	-1262
▁སྨྲ	-1263
▁ཀླུང	-1264
▁བདམས	-1265
༢༠༠	-1266
▁འཐེན	-1267
▁འོ	-1268
▁མངགས	-1269
▁ཨོ	-1270
▁ནམས	-1271
▁འདྲིས	-1272
▁སྙམ	-1273
▁གསོན	-1274
▁བཞེས	-1275
▁འགོས	-1276
▁ཐོས	-1277
▁ཀྲོའུ	-1278
▁ལོང	-1279
▁དྲངས	-1280
▁འདྲེས	-1281
▁ཚར	-1282
▁སིའི	-1283
ིབ	-1284
▁སྐམ	-1285
▁སྐོང	-1286
▁རུས	-1287
▁སྨིན	-1288
▁༡༠	-1289
▁གཡང	-1290
▁ཁྲེན	-1291
༡༨	-1292
༥༠	-1293
▁སང	-1294
▁རམས	-1295
▁ལིང	-1296
▁སོག	-1297
▁ཤན	-1298
▁ནེ	-1299
▁དྭངས	-1300
▁གཤམ	-1301
▁སྙིགས	-1302
▁༩	-1303
▁དབུགས	-1304
▁བགྲོད	-1305
▁པདྨ	-1306
▁ཧོང	-1307
▁བཏུང	-1308
བཏང	-1309
▁གདུང	-1310
▁ཚྭ	-1311
▁གྱོད	-1312
▁ཡས	-1313
▁དཔང	-1314
▁ཕྱེད	-1315
▁བརྩིས	-1316
▁རྒྱའི	-1317
རིང	-1318
▁བགྲོ	-1319
▁བཏོད	-1320
▁ཕྲན	-1321
▁༢༠༡༣	-1322
▁ཕུད	-1323
▁སྲོང	-1324
༡༧	-1325
▁ཐེར	-1326
▁བཟོའི	-1327
▁ལུག	-1328
▁ཞེ	-1329
▁ཁོག	-1330
▁བསྡུའི	-1331
▁འཁྱེར	-1332
▁ཤུ	-1333
▁འདུར	-1334
▁མཁྱེན	-1335
༡༦	-1336
▁གདེང	-1337
▁བསིལ	-1338
▁ཧྲན	-1339
▁བརྗིད	-1340
▁རྟག	-1341
▁ཀང	-1342
▁འཚོང	-1343
མི	-1344
▁སམ	-1345
▁ཛ	-1346
ཡན	-1347
▁འབུར	-1348
▁མིས	-1349
༡ཉིན	-1350
▁མདོར	-1351
▁ཤོད	-1352
▁རགས	-1353
▁དྭགས	-1354
▁མཆེད	-1355
▁འགོར	-1356
▁ཕག	-1357
▁རྩད	-1358
▁ལྷོད	-1359
ནང	-1360
▁ཟངས	-1361
▁ཡའི	-1362
▁སྲིང	-1363
▁པའང	-1364
▁གཟི	-1365
▁ཁྲེང	-1366
▁འགའི	-1367
▁ཨར	-1368
▁འདུལ	-1369
ུའེ	-1370
▁ལྷུན	-1371
རྒྱལ	-1372
▁སྨྱན	-1373
▁ལངས	-1374
▁རུལ	-1375
▁ཝུའུ	-1376
▁སྡོང	-1377
▁ཁྲན	-1378
སྤ	-1379
▁དཔྱིད	-1380
▁བང	-1381
▁ཏུའུ	-1382
▁བསྡད	-1383
▁བསྒྲུབས	-1384
▁གསེང	-1385
▁དྲིན	-1386
▁གོར	-1387
▁གཡས	-1388
▁ཉིས	-1389
▁ཏུན	-1390
▁འདང	-1391
▁འཛད	-1392
▁འདྲའི	-1393
▁གཉན	-1394
▁གློ	-1395
▁མདངས	-1396
▁བྱིན	-1397
▁ཉག	-1398
▁བཟི	-1399
▁ཁེངས	-1400
▁སྣུམ	-1401
▁པུའི	-1402
▁ཅུའུ	-1403
▁དགུང	-1404
▁ཆོན	-1405
▁ཙི	-1406
▁ཞའོ	-1407
▁ཁེལ	-1408
▁འཇལ	-1409
▁གདལ	-1410
▁རོབ	-1411
▁བཅིངས	-1412
ྲུངས	-1413
▁ཆུབ	-1414
▁བསྙ	-1415
▁དགོང	-1416
▁ཞོ	-1417
▁གཏུག	-1418
▁ཝེ	-1419
▁བུན	-1420
▁གཟོད	-1421
▁ཕྱིས	-1422
▁ཤི	-1423
▁ཧོ	-1424
▁སྤང	-1425
▁སྡེབ	-1426
▁མཆིས	-1427
▁ནར	-1428
▁༢༠༡༢	-1429
▁དོགས	-1430
▁འཁྲུག	-1431
▁རན	-1432
▁དཔར	-1433
▁གྲོལ	-1434
▁ངའི	-1435
གྲོང	-1436
▁རར	-1437
▁སོས	-1438
▁བརྐོས	-1439
▁འཁྱགས	-1440
▁ཧེ	-1441
རྩ	-1442
▁ཕོགས	-1443
▁འཕྲོག	-1444
▁རྩེའི	-1445
▁ཆོ	-1446
▁དྲོར	-1447
▁སྤོར	-1448
▁བློའི	-1449
▁ཐན	-1450
▁སྒུལ	-1451
▁འཁྱིལ	-1452
▁ཕུ	-1453
▁ལྐ	-1454
▁བརྡལ	-1455
▁བླག	-1456
སློབ	-1457
▁ཕུག	-1458
▁གུས	-1459
▁ཆུད	-1460
▁ཧའེ	-1461
སྐ	-1462
▁༡༩༩	-1463
▁མཐོན	-1464
▁སྟེར	-1465
▁བགོས	-1466
▁ཁུང	-1467
▁རྡུང	-1468
▁འཁྲུངས	-1469
▁སྤུན	-1470
▁གཡོན	-1471
▁༡༢	-1472
▁ཀྲི	-1473
▁གཡུང	-1474
▁བརྗེའི	-1475
▁༢༠༡༤ལོའི	-1476
▁བོས	-1477
▁འགྱ	-1478
▁ཧྲི	-1479
▁བཅུའི	-1480
▁གནོན	-1481
▁འདོམས	-1482
▁ཀླད	-1483
༠ལྷག	-1484
▁གཡོ	-1485
▁འཚར	-1486
▁འཇར	-1487
▁བཤེས	-1488
▁ལྡབ	-1489
▁ལེའུ	-1490
▁འཕྲལ	-1491
▁ཞྭ	-1492
▁རོམ	-1493
▁རྭ	-1494
▁མཛའ	-1495
▁འགྲོལ	-1496
▁ལྡེབས	-1497
▁གྲོ	-1498
▁ཐོར	-1499
▁ལྐོག	-1500
▁བསྣན	-1501
▁ཁེབས	-1502
▁དོག	-1503
▁ཞེན	-1504
▁མགྲིན	-1505
▁ཁྱུང	-1506
▁སྤྱན	-1507
▁ལོ༢༠	-1508
▁སྐུད	-1509
▁སྐྱོ	-1510
▁སྔོག	-1511
༢༥	-1512
▁ལིན	-1513
▁གུར	-1514
▁མལ	-1515
▁གྲལ	-1516
▁ཟླ༩	-1517
▁སྤུ	-1518
▁ཟླའི	-1519
ཟེར	-1520
▁སྨྱ	-1521
▁ཕོངས	-1522
▁༢༠༡༡	-1523
▁གཞུག	-1524
▁བདུད	-1525
▁བློན	-1526
▁ཡབ	-1527
▁ཟླ༦	-1528
▁ལང	-1529
▁གྲྭས	-1530
▁བདེའི	-1531
▁བསྔགས	-1532
▁རྗེའི	-1533
༡༠༠	-1534
▁ཡུས	-1535
▁མཆིན	-1536
▁ཧུའུ	-1537
▁སིས	-1538
▁འབག	-1539
▁ཡོལ	-1540
ནི	-1541
▁གམ	-1542
༨༠	-1543
▁དཀྱ	-1544
▁འཆི	-1545
▁ཁྲུའུ	-1546
▁བུམ	-1547
དག	-1548
▁ཆི	-1549
▁ཤེལ	-1550
ཡིས	-1551
▁དོར	-1552
▁ཙེ	-1553
▁གསན	-1554
▁རྨི	-1555
▁བསྟུད	-1556
▁འགྲིག	-1557
▁ཕར	-1558
▁མནའ	-1559
▁རྒོད	-1560
▁ཨུའི	-1561
འཛ	-1562
▁དལ	-1563
▁ཧི	-1564
▁བརྩེགས	-1565
▁ཡོདཅེས	-1566
▁བྱད	-1567
▁ཙོང	-1568
▁དགའི	-1569
▁ཡུམ	-1570
▁ལྕི	-1571
གན	-1572
▁ལུ	-1573
▁ཀོན	-1574
▁བའམ	-1575
▁གཙོད	-1576
▁བསྔལ	-1577
▁ཅེ	-1578
▁འབེན	-1579
▁ཧྲེང	-1580
▁བརྙེས	-1581
▁ཚུར	-1582
▁སྐྱབས	-1583
▁ཨན	-1584
▁ཞུང	-1585
▁ཟླ༡༠	-1586
▁སྒོམ	-1587
▁ཡོམ	-1588
▁ལོགས	-1589
▁ཉལ	-1590
མཚ	-1591
▁ཀོ	-1592
▁ཀྱ	-1593
▁མཐའི	-1594
▁རིམས	-1595
▁ལྟོས	-1596
▁དཀྱུས	-1597
▁ཁྲོ	-1598
▁སྨུག	-1599
▁མདོའི	-1600
▁མཚེའུ	-1601
▁སྤྲིན	-1602
▁དུམ	-1603
▁ཕུར	-1604
▁ཟུག	-1605
▁འཕྲོ	-1606
▁ངུ	-1607
▁འབུད	-1608
▁སྡེར	-1609
དཔ	-1610
▁གསོད	-1611
▁གཤེགས	-1612
▁སྤུངས	-1613
རང	-1614
སོགས	-1615
▁འཕྱ	-1616
▁རེབ	-1617
▁ངར	-1618
▁ཕམ	-1619
གཞ	-1620
ཐེངས	-1621
▁ངམ	-1622
▁ཧྲང	-1623
▁གསོར	-1624
༦༠	-1625
▁ཐལ	-1626
▁ཅུད	-1627
▁ཁོའི	-1628
▁ལྷུང	-1629
༠༠༠ལྷག	-1630
▁གྱང	-1631
༤༠	-1632
▁བརླན	-1633
▁འགྲིལ	-1634
༢༠༡༤	-1635
▁འཁྲུལ	-1636
▁ཅག	-1637
▁ཁྲིའི	-1638
▁ཚེསཉིན	-1639
བཀ	-1640
▁འདབ	-1641
▁རྩེར	-1642
▁སྣམ	-1643
▁འགྱི	-1644
▁བསྐུར	-1645
▁གཅིགགི	-1646
▁༡༥	-1647
▁བསང	-1648
▁ཟླ༨	-1649
▁འཐག	-1650
▁ཤག	-1651
▁ཙུང	-1652
▁སླད	-1653
▁བརླག	-1654
▁ཙུའུ	-1655
▁མཁྲིས	-1656
▁གདམས	-1657
▁གེའི	-1658
▁འདེམ	-1659
▁སྤྲས	-1660
གཏ	-1661
▁མིར	-1662
▁རྩམ	-1663
▁རྙོག	-1664
༤༥	-1665
▁པགས	-1666
▁གྲབས	-1667
▁འགུག	-1668
▁ཁུག	-1669
▁བཙལ	-1670
▁༢༠༡༣ལོའི	-1671
༢༢	-1672
༣༥	-1673
དམ	-1674
འཁ	-1675
▁མཉེན	-1676
ྱིས	-1677
▁༡༩༨	-1678
༨ཉིན	-1679
▁དེའང	-1680
▁སྒུག	-1681
▁འདུགདེ	-1682
▁པུ	-1683
▁ལར	-1684
▁དམན	-1685
▁ཟོན	-1686
▁སྒར	-1687
▁མཆོང	-1688
▁ཡིནཞེས	-1689
མང	-1690
ྒྲ	-1691
▁ཟླ༧	-1692
▁གདོད	-1693
▁གཟེར	-1694
▁རྫུན	-1695
▁སྦགས	-1696
ཡས	-1697
▁ཟླ༡	-1698
▁ལེབ	-1699
▁མངར	-1700
▁ཁྲིན	-1701
▁སྲིན	-1702
གསར	-1703
▁ཐེན	-1704
▁འཛིང	-1705
▁བསྐྱལ	-1706
མཐ	-1707
▁གཤེན	-1708
▁དྲགས	-1709
▁བཅངས	-1710
▁བཤིག	-1711
▁གཙོའི	-1712
▁སྣར	-1713
▁སྨར	-1714
▁འདོགས	-1715
▁འདུགས	-1716
▁ཐོའི	-1717
ལག	-1718
▁དུའང	-1719
▁ཟླ༥	-1720
▁ལྷམ	-1721
▁ཞོགས	-1722
▁གཏུགས	-1723
▁འབུའི	-1724
▁ལྷོའི	-1725
▁བོང	-1726
▁འདབས	-1727
▁སྦྲགས	-1728
▁ཞག	-1729
༢༧	-1730
▁རལ	-1731
▁ཆིན	-1732
▁ཕོད	-1733
▁རྨོ	-1734
▁བསགས	-1735
▁གཙིགས	-1736
▁བྲན	-1737
▁ལྡེ	-1738
བསྡ	-1739
▁འབའ	-1740
▁ཡུང	-1741
▁གྲིབ	-1742
▁སུངས	-1743
▁རེདཅེས	-1744
▁༢༠༡༢ལོའི	-1745
▁བྲིན	-1746
▁སྐུའི	-1747
▁༡༣	-1748
▁དཀྲ	-1749
▁༢༠༡༠	-1750
▁བརྗེད	-1751
▁༡༦	-1752
▁ཀརྨ	-1753
▁ལྟད	-1754
▁རྒུས	-1755
▁ལྕོག	-1756
▁དབྱིང	-1757
▁པའིརིང	-1758
▁བསྐྱངས	-1759
▁ལྭ	-1760
▁ཟླ༣	-1761
▁འཚལ	-1762
▁གེགས	-1763
▁ཟླ༡༡	-1764
▁རུབ	-1765
▁འཛུལ	-1766
▁དྲོའི	-1767
▁འཚོའི	-1768
▁ཧན	-1769
▁འབྱམས	-1770
▁གཡག	-1771
▁སྦག	-1772
▁འཕེན	-1773
▁ཉོས	-1774
▁འཇུ	-1775
▁རྔོན	-1776
༢༠༡༤ལོའི	-1777
▁གཟན	-1778
▁གྲི	-1779
▁གཉིད	-1780
▁རྟོན	-1781
▁ལྷད	-1782
▁ཟླ༡༢	-1783
▁ལིའུ	-1784
▁རྦ	-1785
▁འཁྲིའི	-1786
༥ལོར	-1787
▁གཡར	-1788
▁ངེད	-1789
▁ཝུན	-1790
▁ཟླ༤	-1791
▁ཧོར	-1792
▁བཞུར	-1793
▁གཞོགས	-1794
▁བསྐྱུར	-1795
༩༠	-1796
༨ལོར	-1797
༥ལོའི	-1798
▁གཙོར	-1799
▁རྡོག	-1800
▁འགྲོའི	-1801
▁འཕོ	-1802
▁བཞིར	-1803
▁པང	-1804
▁ཐིན	-1805
▁འགངས	-1806
▁ཏིང	-1807
▁སུས	-1808
▁འདུགད	-1809
▁སྐྱུར	-1810
▁གཅིགཐེངས	-1811
▁པན	-1812
▁ཤེ	-1813
▁དུར	-1814
▁ལྕག	-1815
༢༤	-1816
▁བསད	-1817
▁བྱར	-1818
▁༢༠༠༩	-1819
▁དྲུབ	-1820
▁བཞད	-1821
▁གྱིན	-1822
▁རྨིད	-1823
▁ཟླཔའི	-1824
▁ཟླ༦པའི	-1825
དུ	-1826
▁ཆིག	-1827
▁བརྒྱན	-1828
▁ཛི	-1829
▁པོད	-1830
▁བའང	-1831
༩ཉིན	-1832
▁ཁྲང	-1833
▁རྣལ	-1834
▁པི	-1835
▁ཧུང	-1836
▁བཟོད	-1837
༤ཉིན	-1838
▁པུས	-1839
▁འགྲོས	-1840
▁༡༧	-1841
▁ཀུ	-1842
▁ཐུམ	-1843
▁དགར	-1844
▁སྐེ	-1845
▁དྲིས	-1846
འབ	-1847
▁བུས	-1848
༢༨	-1849
༦ཉིན	-1850
▁ཕྱེས	-1851
▁འགོའི	-1852
▁ཏག	-1853
▁ཏེང	-1854
▁ཕྲའི	-1855
▁༢༠༡༣ལོར	-1856
མཚོ	-1857
༦ལོར	-1858
▁གསེས	-1859
▁རྩིག	-1860
▁༣༠	-1861
༥ཉིན	-1862
▁ཆིངས	-1863
▁སྒྲོམ	-1864
▁གཅིན	-1865
▁གཉའ	-1866
▁ཟོས	-1867
▁བསྐོ	-1868
▁མཚོས	-1869
▁བསྲིང	-1870
▁དབྱིངས	-1871
▁ཅུན	-1872
▁ཤུར	-1873
▁ཨེར	-1874
▁ཀྲའོ	-1875
▁མུས	-1876
▁ཤེད	-1877
▁ཁྲི༣	-1878
▁གུའི	-1879
▁བཙོང	-1880
▁སྤོབས	-1881
༢༣	-1882
ཀྱ	-1883
▁ནུའི	-1884
སྟ	-1885
ཞིང	-1886
▁སྲང	-1887
▁ཧའོ	-1888
▁སྡུར	-1889
▁སྦྱང	-1890
▁ཟླ༩པའི	-1891
བཟ	-1892
▁ངོམ	-1893
▁ལོ༡༩	-1894
▁ཆན	-1895
▁འཆང	-1896
▁འཛུམ	-1897
▁རྒུད	-1898
▁༡༨	-1899
▁ཝན	-1900
▁ཐའེ	-1901
▁རྨས	-1902
▁བྲེལ	-1903
▁བསྙེན	-1904
▁ལབ	-1905
▁དཔྱ	-1906
▁སྡིག	-1907
▁བསླངས	-1908
▁སྨྱུག	-1909
▁ཤོ	-1910
▁བཅོམ	-1911
▁ཟུངས	-1912
▁བརྒྱའི	-1913
▁བམ	-1914
▁སིལ	-1915
▁སྙེ	-1916
▁བློས	-1917
▁ཚེས༡ཉིན	-1918
༢༦	-1919
▁ཡལ	-1920
▁རེའུ	-1921
▁རྨོངས	-1922
▁བསླེབས	-1923
གཉ	-1924
▁གསོས	-1925
▁བརྩེའི	-1926
▁༢༠༡༡ལོའི	-1927
༢༩	-1928
▁ཆུར	-1929
དུས	-1930
འཁོར	-1931
▁གདངས	-1932
༧ཉིན	-1933
▁ལིས	-1934
▁རྟའི	-1935
▁དགོསཞེས	-1936
▁ཁྱུ	-1937
▁བྷོ	-1938
▁གྱོང	-1939
▁ཚེའི	-1940
▁སྐྲན	-1941
▁དགུའི	-1942
▁༡༡	-1943
▁ཀྲེ	-1944
▁ལྷུ	-1945
▁ངོགས	-1946
▁འཁྱག	-1947
▁འབྲུམ	-1948
▁ཟླ༨པའི	-1949
དབ	-1950
▁གདམ	-1951
▁ཡམས	-1952
▁གཡེང	-1953
▁ཇིའི	-1954
▁ལྗོན	-1955
▁ཟླ༧པའི	-1956
▁དན	-1957
༢༠༡༣	-1958
༣ཉིན	-1959
ྲིབ	-1960
▁བཙའ	-1961
▁མུན	-1962
▁རྐྱ	-1963
▁ཅིའི	-1964
▁བགྲང	-1965
▁བཏུས	-1966
འདི	-1967
བྱེད	-1968
▁སྤར	-1969
▁བརྡའི	-1970
▁བྲོའི	-1971
▁འདྲིའི	-1972
འག	-1973
རྩོམ	-1974
▁བྱུག	-1975
▁འདུགཁ	-1976
▁འབྲོང	-1977
ཅན	-1978
ཡུལ	-1979
༧ལོར	-1980
▁ཚོམ	-1981
▁ཞིམ	-1982
▁ཞོལ	-1983
▁འུར	-1984
▁འགེལ	-1985
▁འཚེམ	-1986
▁ལུའུ	-1987
▁ཧུའེ	-1988
▁ཟླ༣པའི	-1989
དྲ	-1990
▁བཀལ	-1991
▁ཨེད	-1992
▁རྒོན	-1993
▁བླུགས	-1994
▁ཟླ༡༡པའི	-1995
སྣ	-1996
▁༡༤	-1997
▁མཁལ	-1998
གླ	-1999
▁ཐེམ	-2000
▁ཚེགས	-2001
▁འདྲེ	-2002
▁ལྷུག	-2003
▁འཕྱུར	-2004
▁༢༠༡༤ལོར	-2005
༢༠༡༥	-2006
▁ལྕེ	-2007
▁སྤེན	-2008
▁སྲེག	-2009
▁བཀྲམས	-2010
ྩལ	-2011
ྱེས	-2012
▁ཀའོ	-2013
▁གིན	-2014
▁གཡོག	-2015
▁འཁོལ	-2016
▁འཛེག	-2017
▁ལྷའི	-2018
▁འགྱིག	-2019
ཟླ	-2020
ལྟ	-2021
ྤྱི	-2022
གྱིས	-2023
མངོན	-2024
▁གོན	-2025
▁རྡོར	-2026
▁ཧྲིན	-2027
▁སྤོའི	-2028
▁ཅོག	-2029
▁ཕོར	-2030
▁མཐིལ	-2031
▁སྦྲང	-2032
༤༩	-2033
བླ	-2034
འགྲ	-2035
▁གཙོས	-2036
▁གཞིག	-2037
▁གསུམགྱི	-2038
ཐོག	-2039
▁ཐུ	-2040
▁ཅུའི	-2041
༣༣	-2042
༧༠	-2043
▁ཁམ	-2044
▁གེར	-2045
▁མོན	-2046
▁བཞོན	-2047
▁ཟླ༡པ	-2048
▁བསྲེས	-2049
ཁྲ	-2050
▁གྱལ	-2051
▁ལྟོ	-2052
▁གདོན	-2053
དོན	-2054
▁ཐི	-2055
▁དགོད	-2056
འབྲ	-2057
▁ཁེར	-2058
▁ངོར	-2059
▁འགྱངས	-2060
▁ཡུ	-2061
༤ལོར	-2062
▁བཤལ	-2063
▁ཁྲི༥	-2064
▁འདིང	-2065
▁འབྲལ	-2066
▁ཅིས	-2067
▁སྟར	-2068
སྒྲ	-2069
▁མཐུ	-2070
▁ཚངས	-2071
▁ལྡང	-2072
▁གཞོལ	-2073
▁བྱའོ	-2074
▁མཐུག	-2075
▁བརླིང	-2076
ཁྱ	-2077
ཕྱི	-2078
▁སློག	-2079
▁བསྐྱོན	-2080
༣༦	-2081
སྤྲ	-2082
▁མངལ	-2083
▁མེན	-2084
▁ཟིལ	-2085
▁བསྐལ	-2086
▁ལྗིད	-2087
▁ལྡིང	-2088
▁ཟླ༡༢པའི	-2089
རྣ	-2090
▁ཁོལ	-2091
༡༢ལོའི	-2092
▁འགྱེད	-2093
༩༨	-2094
▁ཐབ	-2095
▁ལུད	-2096
▁སུན	-2097
▁གྲོག	-2098
▁འཚོག	-2099
▁བྱུགས	-2100
▁འགུགས	-2101
བསྐ	-2102
ུའང	-2103
▁ཤྭ	-2104
བསྡུ	-2105
▁ཤུག	-2106
▁ཚོམས	-2107
▁སྐྱི	-2108
ཆོས	-2109
▁ཀི	-2110
▁འཇའ	-2111
འཛུགས	-2112
▁བསྩལ	-2113
▁སྐོམ	-2114
▁འཛེགས	-2115
▁དེད	-2116
▁བདའ	-2117
▁སུང	-2118
▁གཤེར	-2119
▁ཕུའུ	-2120
༢༡	-2121
▁ཟག	-2122
▁འཇོ	-2123
▁སྙི	-2124
▁འཇོམས	-2125
གཙ	-2126
༡ལོར	-2127
ལེགས	-2128
▁རྫིང	-2129
▁སྤྱང	-2130
▁སྐྱའི	-2131
འཆ	-2132
བྱས	-2133
ྔོན	-2134
▁ཕྲལ	-2135
▁ཟིང	-2136
▁གཞོང	-2137
▁དྲའི	-2138
▁བསྲིངས	-2139
▁འཁྲུགས	-2140
ྙན	-2141
▁ཆམ	-2142
▁ཞོན	-2143
▁གཤིན	-2144
▁འགྲོགས	-2145
▁༢༠༡༢ལོར	-2146
▁ཟླ༡༠པའི	-2147
▁འདུགའདིར	-2148
༤༧	-2149
ཅིག	-2150
༣ལོར	-2151
▁དགོ	-2152
▁མགར	-2153
▁དབེན	-2154
▁སྤྲོའི	-2155
སྤྱི	-2156
▁ཁྲུ	-2157
▁ལོལ	-2158
▁གཡུལ	-2159
▁འབངས	-2160
▁རྡེག	-2161
▁འབྲིའི	-2162
༤༦	-2163
འགན	-2164
༢ལོར	-2165
▁གཟིམ	-2166
▁བཀྲམ	-2167
▁རྔུལ	-2168
▁སུའང	-2169
▁སྐུར	-2170
༢༠༡༥ལོའི	-2171
མཁ	-2172
ིབས	-2173
▁༢༥	-2174
▁༦༠	-2175
▁ཐུར	-2176
▁བགོ	-2177
▁པཞེས	-2178
༩༥	-2179
ལོན	-2180
ྤགས	-2181
༠༠ཙམ	-2182
▁པུར	-2183
▁རིར	-2184
▁སྲི	-2185
▁འཐོར	-2186
▁འཛོལ	-2187
ཤམ	-2188
▁ཟླ༢	-2189
▁འགར	-2190
▁སྦས	-2191
༨ལོའི	-2192
▁གཤགས	-2193
▁བཏིང	-2194
▁རྩུབ	-2195
▁སྙེག	-2196
▁ཚེས༡༠	-2197
▁སྐྲངས	-2198
བཙ	-2199
འཇ	-2200
ུམས	-2201
▁ཚི	-2202
༩ལོར	-2203
▁ཐོད	-2204
▁དོང	-2205
▁མངག	-2206
▁སོལ	-2207
▁སྡང	-2208
▁ཧྲེ	-2209
▁བགྲེས	-2210
▁བསྐུལ	-2211
▁འཕྲོས	-2212
▁ཧང	-2213
▁པདང	-2214
▁མཁྲ	-2215
▁སྐས	-2216
▁ཁྲུན	-2217
▁ལྤགས	-2218
▁སྐྲག	-2219
▁སྨྲས	-2220
▁ཕེ	-2221
▁གཤོང	-2222
▁གཟུངས	-2223
▁འབྱིན	-2224
༦༥	-2225
གིས	-2226
མཐོ	-2227
▁ཞུར	-2228
▁ལིའི	-2229
▁དགྱེས	-2230
▁སྦྲུམ	-2231
▁སྐྱོབས	-2232
༣༨	-2233
འཛམ	-2234
ཀྱིས	-2235
▁ཐའོ	-2236
▁སིམ	-2237
▁སེའི	-2238
▁སྨོས	-2239
▁རྩྭའི	-2240
▁སྒྲེང	-2241
▁༢༠༡༥ལོའི	-2242
༧༤	-2243
ཡང	-2244
▁ཁི	-2245
▁བན	-2246
▁ཕེན	-2247
▁བརྫ	-2248
▁བོགས	-2249
▁རྫི	-2250
▁ལྷས	-2251
▁གཅོག	-2252
▁འཚུབ	-2253
▁སྐེད	-2254
▁བགྱིས	-2255
▁༥༠	-2256
▁ཀེ	-2257
▁༡༩༥	-2258
▁གཟིག	-2259
▁བཞེད	-2260
▁གྲུའི	-2261
▁ཞེང	-2262
▁ཡང་	-2263
▁ཞིང་	-2264
▁དཀྲོལ	-2265
▁བཟླ	-2266
▁རྒས	-2267
▁རྩར	-2268
▁ལྕང	-2269
▁གཉོར	-2270
▁ངུའི	-2271
▁བློར	-2272
▁འདུགཅེས	-2273
གནས	-2274
བཀོད	-2275
▁མཚང	-2276
▁རྔམ	-2277
▁གཅོང	-2278
༢༠༡༣ལོའི	-2279
▁ཟླ༡པོའི	-2280
མཛ	-2281
ྨན	-2282
༣༠༠	-2283
རིམ	-2284
༡༠༠༠	-2285
▁ཚིམ	-2286
▁ཞུན	-2287
▁ཟོལ	-2288
▁ཀྲེང	-2289
▁བཞུད	-2290
▁འབྱར	-2291
▁སྤྲེའུ	-2292
༤༤	-2293
༧༨	-2294
བདེ	-2295
▁དྷ	-2296
▁པིན	-2297
▁ཚིལ	-2298
▁རྐོ	-2299
▁ཁྲི༢	-2300
▁གྲུམ	-2301
▁བརྐོ	-2302
▁སྤྲི	-2303
▁ཚེས༡༥	-2304
▁འཕྲེད	-2305
▁མཁྲེགས	-2306
༧༥	-2307
༨༥	-2308
ཆུ	-2309
རྨ	-2310
དམངས	-2311
ཚོགས	-2312
▁༡༩༦	-2313
▁རྒུ	-2314
▁ལོས	-2315
▁དབོར	-2316
▁སྒྲོ	-2317
▁རྒྱགས	-2318
▁སྦྲུལ	-2319
▁འགྲིམས	-2320
▁ཏོ	-2321
གཅིག	-2322
གཉིས	-2323
▁མེར	-2324
▁རེངས	-2325
རུ	-2326
འཆར	-2327
▁ཁྱོ	-2328
▁མགུར	-2329
▁ཚེས༡༠ཉིན	-2330
འཐ	-2331
གཤམ	-2332
༢༠༡༡	-2333
དངོས	-2334
▁བའོ	-2335
▁མའོ	-2336
▁ཐིགས	-2337
▁རྟིང	-2338
▁བརྗེས	-2339
▁སྒྲིབ	-2340
རེ	-2341
ྟན	-2342
▁སད	-2343
སྟེང	-2344
▁རྣོ	-2345
▁སིང	-2346
▁བྲོས	-2347
▁དབྱུག	-2348
ཁག	-2349
ལྗ	-2350
བརྒྱ	-2351
▁དོམ	-2352
▁འཕང	-2353
▁ཡིབ	-2354
▁ཀློང	-2355
▁གྱེས	-2356
▁སྤོང	-2357
▁སྤྲོས	-2358
▁དབྱེའི	-2359
རྣམ	-2360
▁ཉོན	-2361
▁གྱེར	-2362
▁འཇིམ	-2363
▁འཛེམ	-2364
▁བེ	-2365
༢ཉིན	-2366
▁མཛོ	-2367
▁ཙིག	-2368
▁ཚེར	-2369
▁ཡའོ	-2370
༢༠ཉིན	-2371
▁ཁྲིར	-2372
▁བསུས	-2373
▁སྟུག	-2374
▁བསྲུང	-2375
▁འབུངས	-2376
▁བརྩིགས	-2377
ཉེ	-2378
བཏ	-2379
༡༨ཉིན	-2380
▁ཀྲེན	-2381
▁གཡུར	-2382
▁གཤོག	-2383
▁མཁོར	-2384
༣༤	-2385
༦༨	-2386
རིག	-2387
ུའམ	-2388
▁ཟེ	-2389
▁ལྦ	-2390
▁དིང	-2391
▁མནན	-2392
▁ཁྲི༤	-2393
▁འཚེར	-2394
▁བསྐོས	-2395
༣༡	-2396
གངས	-2397
ཆུས	-2398
ཐོན	-2399
ཞིབ	-2400
▁གཅན	-2401
▁གདགས	-2402
▁གཤིབ	-2403
▁བཀྲག	-2404
▁མཁའི	-2405
▁ཞིའི	-2406
▁གཉིསཀྱི	-2407
རེད	-2408
▁མཆུ	-2409
▁འཐད	-2410
▁རྫབ	-2411
ཕྱོགས	-2412
▁ཀྲོང	-2413
▁གཡོལ	-2414
▁འདོར	-2415
▁ཚེས༡༡	-2416
▁འཁྱུར	-2417
▁འགྲུས	-2418
▁ཟླ༥པའི	-2419
▁༢༠༡༠ལོར	-2420
▁༢༠༡༡ལོར	-2421
▁༢༠༠༩ལོའི	-2422
ཐང	-2423
▁ཙན	-2424
▁རྦད	-2425
▁ངོམས	-2426
▁དཔོག	-2427
▁པབཅས	-2428
▁ཚེས༡༩	-2429
▁སྒེའུ	-2430
▁སྤོགས	-2431
▁ཚེས༢༨ཉིན	-2432
༣༩	-2433
▁ཉང	-2434
▁ཐམ	-2435
༧ཡོད	-2436
▁ཁྲེ	-2437
▁མྱང	-2438
▁ཁྱམས	-2439
▁བཀུག	-2440
▁འདུམ	-2441
▁བསྐངས	-2442
▁ལོ༢༠༠	-2443
▁དབངཀྲུང	-2444
▁ནའི	-2445
▁ཞོག	-2446
▁ཤོང	-2447
༡༢ཉིན	-2448
▁གདུགས	-2449
▁གླེགས	-2450
▁བལྟོས	-2451
▁མཁོའི	-2452
▁སྤྲེལ	-2453
▁བསྲེགས	-2454
༦༤	-2455
ཇེ	-2456
འཚ	-2457
▁འཇང	-2458
▁རུམ	-2459
▁ཤུན	-2460
▁གྲུག	-2461
▁ཟླུམ	-2462
▁སྦོས	-2463
▁བརྟགས	-2464
▁མཆོངས	-2465
▁འགྱིང	-2466
༢༠༡༢ལོའི	-2467
▁གཞལ	-2468
▁ཕིན	-2469
▁ཡུར	-2470
▁རྣག	-2471
༢༠ལྷག	-2472
བཙུགས	-2473
▁བྱོལ	-2474
▁མཐེབ	-2475
▁འབེབ	-2476
▁འདྲིར	-2477
▁སྐྱུགས	-2478
▁༢༠༠༨ལོར	-2479
▁༢༠༡༠ལོའི	-2480
༨༩	-2481
ཉམ	-2482
རྗ	-2483
རྫ	-2484
༥༠༠	-2485
༣ཡོད	-2486
▁བཀས	-2487
▁ལྔར	-2488
▁ལྟག	-2489
▁ལྷང	-2490
▁དྲེག	-2491
▁མཚེས	-2492
▁སྦུག	-2493
▁བརྒྱར	-2494
▁ཏྲ	-2495
▁བི	-2496
▁གྱར	-2497
▁གྲམ	-2498
▁བཀར	-2499
▁སྒོང	-2500
▁རྫོངཆུས	-2501
▁ཚེས༡༥ཉིན	-2502
▁ཚེས༡༩ཉིན	-2503
༣༢	-2504
༣༧	-2505
▁༨༠	-2506
▁འུ	-2507
▁ཧུ	-2508
གཏོང	-2509
▁དྲས	-2510
༣༡ཉིན	-2511
༦ལོའི	-2512
▁ཙིའི	-2513
▁འཕངས	-2514
▁ལྷགས	-2515
▁ཚེས༨ཉིན	-2516
▁ཚེས༢༠ཉིན	-2517
▁ཚེས༢༥ཉིན	-2518
▁མགྲིནའདིར	-2519
༦༧	-2520
གསོ	-2521
༦ཡོད	-2522
▁ཁུན	-2523
▁ཏའོ	-2524
▁ཁྲི༡༠	-2525
▁ཚེས༡༦	-2526
▁འགྱོད	-2527
▁ཟླ༡༠བའི	-2528
▁ཚེས༡༡ཉིན	-2529
ཚད	-2530
༣དང	-2531
༦དང	-2532
གཏན	-2533
ཞིག	-2534
▁ཉམ	-2535
ཁྲོད	-2536
▁གདང	-2537
▁གུན	-2538
▁ངུར	-2539
▁བདམ	-2540
▁རྨད	-2541
▁སྲབ	-2542
༡༣ཉིན	-2543
▁ཀྲིན	-2544
▁སྐྱག	-2545
▁སྐྱིན	-2546
▁ཚེས༡༨ཉིན	-2547
༩༩	-2548
ྱེ	-2549
དགེ	-2550
▁ཙང	-2551
༨ཡོད	-2552
▁གཏར	-2553
▁མེང	-2554
▁སྦི	-2555
༡༤ཉིན	-2556
▁ཁྲི༡	-2557
▁ཅིང་	-2558
▁བསམས	-2559
▁བསྙལ	-2560
▁འཁྲུ	-2561
▁རྐྱལ	-2562
▁སྙོམ	-2563
▁བྱིངས	-2564
▁ལྕོགས	-2565
ཡིག	-2566
▁ཤམ	-2567
སྔོན	-2568
▁གཡའ	-2569
▁བཙོ	-2570
༠༠ཡོད	-2571
▁ཀྱོག	-2572
▁བཤུས	-2573
▁མགོར	-2574
▁སྤངས	-2575
བསྐྲུན	-2576
ཆེད	-2577
སྣེ	-2578
▁གྷ	-2579
▁ཝུ	-2580
▁༡༩༧	-2581
▁དགག	-2582
▁ཞུམ	-2583
▁སྣག	-2584
▁གདུལ	-2585
▁གཡུག	-2586
▁རྗོད	-2587
▁དཀྲིས	-2588
▁ཟླ༤པའི	-2589
▁སྒྲིགས	-2590
༥༤	-2591
▁༡༠༠	-2592
▁དམུ	-2593
▁ཡོས	-2594
▁ལེར	-2595
ལྗོངས	-2596
▁བགྱི	-2597
▁མདུད	-2598
▁གཅིགས	-2599
▁ཚེས༩ཉིན	-2600
གཞན	-2601
▁ཅོ	-2602
▁གཟར	-2603
▁ཟགས	-2604
▁སྦལ	-2605
༡༧ཉིན	-2606
▁ཁྲི༦	-2607
▁འཕྲི	-2608
▁ཤུའི	-2609
▁འབྲངས	-2610
▁སྡིངས	-2611
▁ཚེས༢ཉིན	-2612
༢ལ	-2613
མན	-2614
▁༠	-2615
གནད	-2616
དཔེ	-2617
བཟོ	-2618
སྤྲད	-2619
▁བཀླ	-2620
▁ཚའི	-2621
▁ཚེག	-2622
▁༢༠༠༠	-2623
▁གདུག	-2624
▁མྱངས	-2625
▁མྱེས	-2626
▁ཁྲི༡༥	-2627
▁ཚེས༢༡ཉིན	-2628
༨ལ	-2629
པེ	-2630
འཐབ	-2631
ཕྱིར	-2632
▁ཏིན	-2633
▁བྷེ	-2634
▁ཟའི	-2635
▁སིར	-2636
སྒྲིག	-2637
▁༨པའི	-2638
▁གྲུང	-2639
▁བསླུ	-2640
▁འཁོན	-2641
▁འཐོབ	-2642
▁རྩེན	-2643
▁སྦོམ	-2644
▁རྡོའི	-2645
▁རྩིའི	-2646
▁སྙེགས	-2647
▁༢༠༠༦ལོར	-2648
ྒང	-2649
༥ལོ	-2650
བསམ	-2651
▁༤༠	-2652
▁༧༠	-2653
▁གབ	-2654
▁ཙག	-2655
▁ཀྱང་	-2656
▁བཙོན	-2657
▁མོངས	-2658
▁ཟིའི	-2659
▁རྗེན	-2660
▁བསྐོལ	-2661
▁རྡེའུ	-2662
▁པའིབོད	-2663
▁བསྐོའི	-2664
▁ཚེས༡༣ཉིན	-2665
༡ལ	-2666
༥༥	-2667
ཅས	-2668
ཁྱབ	-2669
བཀྲ	-2670
▁པྲ	-2671
▁ཏའི	-2672
༣༠ཉིན	-2673
༩ལོའི	-2674
བསྡུས	-2675
▁ཏུའང	-2676
▁རྐེད	-2677
▁སུའོ	-2678
▁བརླགས	-2679
▁བསྡེབས	-2680
▁ཚེས༡༦ཉིན	-2681
གེ	-2682
གོང	-2683
བཏོན	-2684
▁ཁོད	-2685
▁ཁོམ	-2686
▁གཏང	-2687
▁གཞུ	-2688
▁བཀྱ	-2689
▁འདར	-2690
▁འཚང	-2691
▁རྔན	-2692
▁ཁྲའོ	-2693
▁གྱེན	-2694
▁བུའོ	-2695
▁མཚོར	-2696
▁འཆོར	-2697
▁རྨོས	-2698
▁ལུམས	-2699
▁ལྡུམ	-2700
▁འཁྲིག	-2701
▁འགྲིབ	-2702
▁ཚེས༡༢ཉིན	-2703
▁ཚེས༡༤ཉིན	-2704
▁ཚེས༢༢ཉིན	-2705
༦༩	-2706
༡དང	-2707
༧དང	-2708
ཤེས	-2709
སྨན	-2710
▁ཀས	-2711
ྲིམས	-2712
▁གསའ	-2713
▁བཅག	-2714
▁མིད	-2715
▁མུག	-2716
▁རོན	-2717
▁མཉེས	-2718
▁མདུང	-2719
▁བཏིངས	-2720
▁འདུགམ	-2721
▁སྒྲུག	-2722
▁༢༠༠༨ལོའི	-2723
▁ཚེས༢༣ཉིན	-2724
▁འདུགཀྲུང	-2725
ཉི	-2726
༢དང	-2727
༨དང	-2728
དེབ	-2729
ྲོལ	-2730
༢ཡོད	-2731
བྱུང	-2732
▁གོད	-2733
▁བྷང	-2734
▁ཟླར	-2735
▁རོག	-2736
▁རྐུ	-2737
▁ལྟས	-2738
༤ལོའི	-2739
༧ལོའི	-2740
རྒྱུད	-2741
▁བཙོས	-2742
▁འཚོར	-2743
▁ལུའོ	-2744
▁པདྨའི	-2745
▁བགེགས	-2746
▁བསྡམས	-2747
▁༢༠༠༩ལོར	-2748
▁ཚེས༣ཉིན	-2749
▁ཚེས༦ཉིན	-2750
▁ཚེས༢༦ཉིན	-2751
▁ཚེས༢༩ཉིན	-2752
རི	-2753
༡ལོ	-2754
མཉམ	-2755
མཐའ	-2756
ིའི	-2757
▁དྲྭ	-2758
▁མཚལ	-2759
▁འཐུ	-2760
▁ལྒང	-2761
▁སྲན	-2762
▁གཅུན	-2763
▁བཅའི	-2764
▁འདུད	-2765
༢༠༠ལྷག	-2766
▁གཡོགས	-2767
▁བཟློག	-2768
▁བསྣམས	-2769
▁ཟླ༢པའི	-2770
༢༠༡༡ལོའི	-2771
▁ཚེས༥ཉིན	-2772
༡༢༠	-2773
༨ལོ	-2774
འཕྲ	-2775
▁༩༠	-2776
▁ཤལ	-2777
▁གཡབ	-2778
▁བཙས	-2779
▁བྲི	-2780
▁ཚའེ	-2781
▁ཁྲེལ	-2782
▁དུངས	-2783
▁སྣུར	-2784
▁སྦྲག	-2785
▁བཏེགས	-2786
▁ཟླ༤བའི	-2787
▁ཟླ༩བའི	-2788
▁འཕྱོངས	-2789
▁ཁུལགྲོང	-2790
▁ཚེས༡༧ཉིན	-2791
▁ཚེས༢༧ཉིན	-2792
ཀྲ	-2793
རྟ	-2794
སྒ	-2795
༥དང	-2796
▁༢༤	-2797
བསྟན	-2798
▁ཐོལ	-2799
▁དུལ	-2800
▁མུར	-2801
▁སྒལ	-2802
༣༠ལྷག	-2803
▁གཡོས	-2804
▁ཆིབས	-2805
▁བླུན	-2806
▁རློན	-2807
▁ལྡེམ	-2808
▁ཤིང་	-2809
▁སྒེག	-2810
▁ཧྲེན	-2811
▁བསྲེག	-2812
▁སྟོངས	-2813
▁ཚེས༧ཉིན	-2814
དོ	-2815
ཁྱི	-2816
ཚོད	-2817
▁ཨམ	-2818
དེའི	-2819
▁མནར	-2820
▁༡ཉིན	-2821
▁རྡོལ	-2822
▁སྣེའུ	-2823
▁ཟླ༥བའི	-2824
▁འདུགབོད	-2825
▁ཚེས༣༠ཉིན	-2826
༣ལ	-2827
བཞ	-2828
ལམ	-2829
གཙང	-2830
▁ལད	-2831
འཕེལ	-2832
▁ཁའེ	-2833
▁གནག	-2834
▁གུད	-2835
▁ཟིས	-2836
▁སེན	-2837
▁ཀྲིག	-2838
▁བསྲང	-2839
▁རུའི	-2840
▁རྩེག	-2841
▁འདུགང	-2842
▁ལྟོགས	-2843
▁སྒྲའི	-2844
▁སྒྲོས	-2845
▁༢༠༠༧ལོར	-2846
▁ཚེས༤ཉིན	-2847
བད	-2848
མཆ	-2849
༩དང	-2850
ེའི	-2851
ྙིང	-2852
▁སན	-2853
▁ཏོན	-2854
▁ཟོང	-2855
▁འགས	-2856
▁ཡིང	-2857
▁དྲོན	-2858
▁བཀྲུ	-2859
▁རྡེབ	-2860
▁ལྟའང	-2861
▁སོའོ	-2862
▁དཔེའི	-2863
▁བསྒྲིལ	-2864
▁ཚེས༣༡ཉིན	-2865
འན	-2866
བརྩ	-2867
༢ཟིན	-2868
༦ཟིན	-2869
▁ཏེན	-2870
▁ལའོ	-2871
འབྲེལ	-2872
▁ཁྲི༨	-2873
▁རྔུབ	-2874
▁སྐོལ	-2875
▁༢༠ལྷག	-2876
▁ཁྲི༡༢	-2877
▁དབྱིས	-2878
▁ཕྱུར༥	-2879
▁འཁྱམས	-2880
▁ལོལོར	-2881
▁སྐྱེན	-2882
▁ཟླ༡ཚེས	-2883
▁སྐྱོངས	-2884
༦ལ	-2885
ཁོར	-2886
སྐྱ	-2887
▁༢༨	-2888
▁ཧམ	-2889
༥ཟིན	-2890
▁ཆའང	-2891
▁ཕྱར	-2892
▁ཕྲད	-2893
▁མོག	-2894
▁ལའེ	-2895
▁༧པའི	-2896
▁ཁྲི༧	-2897
▁གཙགས	-2898
▁ཆེའོ	-2899
▁ཕིབས	-2900
▁བཞིས	-2901
▁མྱུལ	-2902
▁འགགས	-2903
▁དབྱེར	-2904
▁བསླབས	-2905
▁འཚེའི	-2906
▁ཚེས༢༤ཉིན	-2907
༤༨	-2908
༩ལ	-2909
༡༩༨	-2910
▁ཟང	-2911
གློག	-2912
དགོན	-2913
དཔྱད	-2914
སྤེལ	-2915
▁ནིས	-2916
▁ཤའི	-2917
▁ཨའོ	-2918
▁མདའི	-2919
▁རུའེ	-2920
▁ལྗགས	-2921
▁སྤྲང	-2922
▁མཐོངས	-2923
▁འཁྱུག	-2924
▁འདུགལོ	-2925
གཟ	-2926
ཚན	-2927
▁༢༩	-2928
▁ཁལ	-2929
༩ཡོད	-2930
གཞུང	-2931
དབུལ	-2932
༢ལོའི	-2933
▁ཆོགས	-2934
▁བྱུར	-2935
▁རུའུ	-2936
▁རྐུན	-2937
▁སུའི	-2938
▁བསྐོང	-2939
▁བྱིའུ	-2940
▁འཁུམས	-2941
▁པའིའཆར	-2942
༤ལ	-2943
ྱལ	-2944
མཛེས	-2945
▁པེལ	-2946
▁ཕངས	-2947
▁བྱུ	-2948
▁རྡུ	-2949
▁ལྔས	-2950
▁ལྕམ	-2951
༠༠༠ཡན	-2952
▁དཔངས	-2953
▁དེའོ	-2954
▁སྒུར	-2955
▁བྱུང་	-2956
▁འཛེམས	-2957
▁༢༠༡༥ལོར	-2958
▁དབངའདིར	-2959
▁བསྒྲེངས	-2960
བུ	-2961
ཚང	-2962
ཚེ	-2963
ཤར	-2964
ཨུ	-2965
ཁྱིམ	-2966
▁ཐིམ	-2967
▁བརྔ	-2968
▁ཡེར	-2969
༡ལོའི	-2970
▁ཁྲུས	-2971
▁གསེད	-2972
▁དབོན	-2973
▁ཁྲི༢༠	-2974
༧ལ	-2975
ནད	-2976
འར	-2977
ྡེ	-2978
གཞི	-2979
དཔལ	-2980
ཞབས	-2981
གསེར	-2982
སྐབས	-2983
▁གཡན	-2984
▁ཅོན	-2985
▁པེར	-2986
▁པོའང	-2987
▁བདེར	-2988
▁བརྩམ	-2989
▁འབུས	-2990
▁རྒུན	-2991
▁རྨེན	-2992
▁རློམ	-2993
▁བགྲངས	-2994
▁༢༠༠༥ལོར	-2995
གཡ	-2996
ཆབ	-2997
རྡ	-2998
▁བ༤	-2999
▁ཤད	-3000
གསུམ	-3001
བྱིས	-3002
▁ཁང་	-3003
▁དབན	-3004
▁རྡི	-3005
▁སུག	-3006
▁ཨའེ	-3007
༣ལོའི	-3008
▁ཀྲོན	-3009
▁ཁྱུད	-3010
▁གཏུམ	-3011
▁ཡིགས	-3012
▁རྐུབ	-3013
▁ལོ༡༠	-3014
▁ཨུའམ	-3015
▁ཁྲི༡༦	-3016
▁བཙོངས	-3017
▁ཡིནཟེར	-3018
▁ལོ༢༠༡༣	-3019
▁འདུགརྩོམ	-3020
ཇོ	-3021
དཀ	-3022
རྐ	-3023
༡ནས	-3024
༦༠༠	-3025
འགོ	-3026
སྐད	-3027
▁ཅར	-3028
▁ཕང	-3029
༡ཟིན	-3030
༢༠༡༠	-3031
བཟོས	-3032
▁ཀྲུ	-3033
▁གཤག	-3034
▁བཤུ	-3035
▁བྷི	-3036
▁མྱུ	-3037
▁འཚག	-3038
ཁྲིམས	-3039
▁བཏུལ	-3040
▁འདྲར	-3041
▁འཛུག	-3042
▁ཧྲའོ	-3043
▁དཀྲུག	-3044
▁མགོའི	-3045
▁སྦུབས	-3046
▁མེདཅེས	-3047
གོ	-3048
སུ	-3049
༡༥༠	-3050
༡༩༩	-3051
༧ལོ	-3052
གཙོ	-3053
ཐོབ	-3054
འོན	-3055
ྩོལ	-3056
▁སས	-3057
རྗེས	-3058
▁ཀེར	-3059
▁གདའ	-3060
▁གྲག	-3061
▁ཏེས	-3062
▁པེན	-3063
▁བཤའ	-3064
▁རྫུ	-3065
༠༠༠ཙམ	-3066
▁གློད	-3067
▁ཟླ༦པར	-3068
▁ཟླ༦ཚེས	-3069
▁ལོ༢༠༡༡	-3070
▁ལོལོའི	-3071
༥༨	-3072
༦༢	-3073
མེ	-3074
ཆེས	-3075
ྒྱལ	-3076
ྱངས	-3077
▁༢༢	-3078
▁༢༣	-3079
རྩིས	-3080
▁ཀྱག	-3081
▁ཏུར	-3082
▁བཞུ	-3083
▁ཡོག	-3084
▁ལེང	-3085
༢༠ལོར	-3086
འགྲེམ	-3087
▁བཤུག	-3088
▁བསྐང	-3089
▁བྱེས	-3090
▁མནོལ	-3091
▁ཟླཔར	-3092
▁འཁོབ	-3093
▁རྭའི	-3094
▁འཇེབས	-3095
▁འཕྲོར	-3096
▁འོགབོད	-3097
▁སྒྲོགས	-3098
▁འདུགདེའི	-3099
མར	-3100
༠༠ལ	-3101
༥ཡི	-3102
༦ལོ	-3103
མཁའ	-3104
འཁྲ	-3105
འདུ	-3106
ྲིམ	-3107
▁ཞར	-3108
▁ཨི	-3109
༤ཡོད	-3110
བརྒལ	-3111
རྫོང	-3112
▁འདའ	-3113
▁སོབ	-3114
▁སྤྱ	-3115
སྤྱོད	-3116
▁༦པའི	-3117
▁ནེའུ	-3118
▁བཏབས	-3119
▁ཙེའི	-3120
▁འཆིང	-3121
▁འཕེར	-3122
▁འཕྱི	-3123
▁རྡིབ	-3124
▁ལྷུར	-3125
▁ཧྲའན	-3126
▁ཕྱུར༢	-3127
▁བལྟམས	-3128
▁བསྲེལ	-3129
▁བསླེབ	-3130
▁རྒྱངས	-3131
▁སྐྱུག	-3132
▁ལོ༢༠༡༢ལོའི	-3133
༤༣	-3134
༦༣	-3135
ཁེ	-3136
ཚོང	-3137
ལུས	-3138
▁ངེ	-3139
༢༠༠༠	-3140
བསིལ	-3141
▁པའེ	-3142
▁པིར	-3143
▁ཕོན	-3144
▁མངས	-3145
༡༢ལོར	-3146
རྒྱུན	-3147
▁ཀུའེ	-3148
▁ཁྲའི	-3149
▁གཅུང	-3150
▁དངངས	-3151
▁བཅུར	-3152
▁བྱོས	-3153
▁མགུལ	-3154
▁མཐིང	-3155
▁རོའི	-3156
▁རྨིས	-3157
▁སྨྱུ	-3158
▁སྨྱོ	-3159
▁བརྐུས	-3160
▁བརྡོལ	-3161
▁འཁྲུད	-3162
▁འགྲེང	-3163
▁འབྲོམ	-3164
▁ཐོགབོད	-3165
ཡར	-3166
ལྔ	-3167
སྦ	-3168
བཀའ	-3169
▁༢༧	-3170
▁ཟོ	-3171
གཉེར	-3172
འུའི	-3173
▁ཁགས	-3174
▁ཁྲབ	-3175
▁གཏག	-3176
▁གསས	-3177
▁གོག	-3178
▁ཆུན	-3179
▁ཆོལ	-3180
▁ཏིས	-3181
▁བཀང	-3182
▁སུར	-3183
༥༠ལྷག	-3184
▁ཀྲའུ	-3185
▁དཀྲི	-3186
▁ཕྱིང	-3187
▁མདོང	-3188
▁མཛངས	-3189
▁འཁྱར	-3190
▁སྩོལ	-3191
བརྒྱུད	-3192
▁གཟིངས	-3193
▁བརྫིས	-3194
▁བསྙེགས	-3195
གད	-3196
༡༤༠	-3197
༢ལོ	-3198
༤དང	-3199
ྐྱེ	-3200
▁༢༦	-3201
▁འང	-3202
༥ཡོད	-3203
▁ཐགས	-3204
▁དགས	-3205
▁ནུར	-3206
▁བཤང	-3207
▁མའང	-3208
▁མའེ	-3209
▁འཁལ	-3210
▁འབོ	-3211
▁རངས	-3212
▁སིན	-3213
▁དགུས	-3214
▁བསླད	-3215
▁ཝུའེ	-3216
▁སྡེས	-3217
༠༠༠ཡོད	-3218
▁ཀྱིལོ	-3219
▁ཀླུའི	-3220
▁གཡུགས	-3221
▁པསོགས	-3222
▁བཀླགས	-3223
▁བརླབས	-3224
▁༢༠༡༡ལོ	-3225
༥༧	-3226
༨༧	-3227
༩༧	-3228
གལ	-3229
༥ནས	-3230
དབྱ	-3231
ཚུད	-3232
འཚོ	-3233
ལྷོ	-3234
ཤིན	-3235
▁ཕི	-3236
▁བ༥	-3237
▁ཝར	-3238
༠༠ཡི	-3239
༡ཡོད	-3240
སྲིད	-3241
▁ཀྲན	-3242
▁གཏའ	-3243
▁བསེ	-3244
▁བེམ	-3245
▁མཆི	-3246
▁རྨེ	-3247
▁ལྦུ	-3248
▁ཧིན	-3249
▁ཨིན	-3250
▁༣པའི	-3251
▁ཀུའུ	-3252
▁གཅེན	-3253
▁ཙུའི	-3254
▁རྐོས	-3255
▁རྫུས	-3256
▁སྲེད	-3257
▁ཁྲི༡༧	-3258
▁ཟླཚེས	-3259
▁ལོ༡༩༩	-3260
▁འདུགསློབ	-3261
༥༩	-3262
༣ལོ	-3263
ནོར	-3264
བརྗ	-3265
▁ངད	-3266
༣ཟིན	-3267
▁ངེར	-3268
▁དྷི	-3269
▁མགུ	-3270
▁མཚེ	-3271
▁ཙིར	-3272
▁ཞོད	-3273
༤༠ལྷག	-3274
▁འཕྱར	-3275
▁འབྲང	-3276
▁རྨོག	-3277
▁སྨི༤	-3278
▁ཁྲི༡༣	-3279
▁དགེའི	-3280
▁བསླུས	-3281
▁ཟླ༧པར	-3282
▁ཟླབའི	-3283
▁བརྐྱངས	-3284
▁ཤངགྲོང	-3285
▁པའིསློབ	-3286
༤༢	-3287
༥༦	-3288
དངས	-3289
བློ	-3290
མཁོ	-3291
▁༣༨	-3292
▁ཇག	-3293
༡༠༠ལ	-3294
▁ཇའི	-3295
▁ཇིན	-3296
▁ཕེང	-3297
༦༠ལྷག	-3298
དམིགས	-3299
▁གཡོད	-3300
▁ཆིའུ	-3301
▁ཐུའུ	-3302
▁འཁྱམ	-3303
༣༠༠ལྷག	-3304
▁དབྱུང	-3305
▁བརྟོལ	-3306
▁ཟླ༨པར	-3307
▁འདྲུད	-3308
▁ཐུབཅེས	-3309
▁ཕྱུར༡༠	-3310
▁བསྒྲོན	-3311
▁བསྣུབས	-3312
▁ཡོདཟེར	-3313
༥ལ	-3314
ཏུ	-3315
ལྕ	-3316
སྔ	-3317
༣ནས	-3318
གནམ	-3319
▁༤༧	-3320
▁མམ	-3321
▁ཟན	-3322
འགྲན	-3323
འདུས	-3324
རིགས	-3325
སྐོར	-3326
▁གདབ	-3327
▁གུམ	-3328
▁ཅིར	-3329
▁ཉའི	-3330
▁ཏིལ	-3331
▁དུབ	-3332
▁བགར	-3333
▁བུང	-3334
▁ཟིག	-3335
▁སུལ	-3336
སྤྲོད	-3337
▁ཁོའོ	-3338
▁གཉོམ	-3339
▁ཅིའུ	-3340
▁དམྱལ	-3341
▁དྲོས	-3342
▁པོའམ	-3343
▁བརྟས	-3344
▁མིའམ	-3345
▁འཚིག	-3346
▁འོགས	-3347
▁རྒྱར	-3348
▁རྗོང	-3349
▁རྫོབ	-3350
▁ལུའི	-3351
▁སེའུ	-3352
▁༢༦ཉིན	-3353
▁གྲོངས	-3354
▁སྒྲིམ	-3355
༡༠༠༠ལྷག	-3356
▁༢༠༠༥ལོ	-3357
▁༢༠༡༠ལོ	-3358
▁བརྡུངས	-3359
༨༨	-3360
ཁོ	-3361
ཕྱ	-3362
བྱང	-3363
མཚན	-3364
ལྟར	-3365
ྲོང	-3366
▁༢༡	-3367
▁༣༥	-3368
▁ཚག	-3369
༣འཕར	-3370
༥༡༠༠	-3371
བཟུང	-3372
▁ཁེག	-3373
▁གྲེ	-3374
▁དབལ	-3375
▁ནངས	-3376
▁ཝའེ	-3377
▁ཤགས	-3378
▁༩པའི	-3379
▁གཏམས	-3380
▁གནོང	-3381
▁གཡེར	-3382
▁ངོའི	-3383
▁བཙའི	-3384
▁བསྔོ	-3385
▁བསྟི	-3386
▁མེའི	-3387
▁ཚྭའི	-3388
▁འབེལ	-3389
▁ལོ༡༧	-3390
▁བཀྲོལ	-3391
▁འཁྱོག	-3392
༧༦	-3393
ནམ	-3394
ཞི	-3395
ཤང	-3396
ཧྲ	-3397
༤ལོ	-3398
མིང	-3399
▁འམ	-3400
༤ཟིན	-3401
༩ཟིན	-3402
འཁྲབ	-3403
▁ནོམ	-3404
▁བྲམ	-3405
▁ཤེར	-3406
▁༨ཉིན	-3407
▁ཀུའོ	-3408
▁གྲུར	-3409
▁དམོད	-3410
▁ཕྱུང	-3411
▁བེའུ	-3412
▁འཐུལ	-3413
▁ཡིའུ	-3414
▁སྐྱར	-3415
▁སྙེད	-3416
༡༠༠ལྷག	-3417
▁༡༡པའི	-3418
▁ཁྲུའི	-3419
▁བཀྲིས	-3420
▁སྨྱོན	-3421
▁༢༠༡༤ལོ	-3422
▁དཀྲུགས	-3423
▁རེདཟེར	-3424
▁༢༠༠༣ལོར	-3425
གང	-3426
ཐད	-3427
ནན	-3428
རྡོ	-3429
▁པལ	-3430
▁བ༣	-3431
༡༠དང	-3432
༥༠༠༠	-3433
གླིང	-3434
འདོན	-3435
འཛིན	-3436
ཡོངས	-3437
▁གཏེ	-3438
▁ཅུར	-3439
▁ཆའོ	-3440
▁ནེར	-3441
▁ནེེ	-3442
▁པལྷ	-3443
▁མཛེ	-3444
▁ཚེམ	-3445
▁ཞགས	-3446
▁འབམ	-3447
▁རུད	-3448
▁སྦུ	-3449
བརྗོད	-3450
▁༡༩༩༠	-3451
▁ཁུའི	-3452
▁ནེའི	-3453
▁ཕྱོད	-3454
▁མཚུར	-3455
▁འཕུལ	-3456
▁སུའེ	-3457
རྒྱུགས	-3458
▁༡༠པའི	-3459
▁གླུའི	-3460
▁བརྒྱལ	-3461
▁བསྣུར	-3462
▁འགྲམས	-3463
▁འཇུགས	-3464
▁འབྲུབ	-3465
▁སྦྲིད	-3466
༢༠༡༤ལོར	-3467
▁ཕྱུར༡༥	-3468
▁བསློགས	-3469
▁འདུགཁོང	-3470
▁འདུགའདི	-3471
དར	-3472
པོ	-3473
བྲ	-3474
༡༨༠	-3475
གནའ	-3476
ཉིང	-3477
དེང	-3478
ཤིང	-3479
ྒྱུ	-3480
▁༣༦	-3481
▁ཁྭ	-3482
༠༠དང	-3483
༠༠ནས	-3484
༣༠༠༠	-3485
༧པའི	-3486
པོའི	-3487
འགོར	-3488
རྒྱུ	-3489
▁ཀྱེ	-3490
▁གཏོ	-3491
▁པིང	-3492
▁ཙེང	-3493
▁ཟོར	-3494
▁འཚབ	-3495
▁སའོ	-3496
༡༠ལྷག	-3497
▁གཤེད	-3498
▁ཅིགས	-3499
▁བཤགས	-3500
▁བྷོད	-3501
▁མཉེད	-3502
▁འགྱང	-3503
▁འཕྲང	-3504
▁སྤགས	-3505
▁སྲིབ	-3506
▁༡༤ཉིན	-3507
▁བསྐོན	-3508
▁༢༠༠༩ལོ	-3509
▁ལོ༢༠༡༠	-3510
▁བྱུངཞེས	-3511
▁འདུགམཚོ	-3512
▁ཁྲིམསཀྱི	-3513
ྐད	-3514
ཀུན	-3515
ནགས	-3516
བླང	-3517
མདོ	-3518
▁༣༢	-3519
▁མ༤	-3520
༣གྱི	-3521
བརྟན	-3522
▁༡༥༠	-3523
▁ཀྲོ	-3524
▁པོབ	-3525
▁བདང	-3526
▁བཤས	-3527
▁བིས	-3528
▁འཆལ	-3529
▁འཕན	-3530
▁འཛར	-3531
▁ལུན	-3532
༠༠བཏང	-3533
▁༥ཚེས	-3534
▁ཁེའི	-3535
▁གཤོམ	-3536
▁ཇོའི	-3537
▁ནི༡༩	-3538
▁བཞུས	-3539
▁བཤོལ	-3540
▁བསུང	-3541
▁འཆུས	-3542
▁ཁྲི༡༡	-3543
▁ཕྱུར༣	-3544
▁བསྣོན	-3545
▁འཁྱོར	-3546
▁འབྱོན	-3547
▁རབས༢༠	-3548
▁ལྷོངས	-3549
▁སྲུབས	-3550
▁༢༠༡༢ལོ	-3551
▁ཕྱུར༡༡	-3552
༦༦	-3553
༧༧	-3554
པད	-3555
ཕྲ	-3556
བཤ	-3557
རླ	-3558
༡གི	-3559
༤ཡི	-3560
ཉུང	-3561
མིག	-3562
རྩྭ	-3563
▁ཧར	-3564
▁གཏི	-3565
▁ཉུལ	-3566
▁ནོན	-3567
▁མའམ	-3568
▁རྟར	-3569
▁ལྷབ	-3570
▁༦ཚེས	-3571
▁ཁྲི༩	-3572
▁གནངས	-3573
▁གླེན	-3574
▁པོའོ	-3575
▁བྲོད	-3576
▁འཕྱོ	-3577
▁ལྷོག	-3578
▁ཤུབས	-3579
▁སྙོར	-3580
▁སྤུར	-3581
▁སྦིས	-3582
▁སྨོད	-3583
▁༡༥ཉིན	-3584
▁ཁྲི༡༤	-3585
▁ཆོགདེ	-3586
▁བསྙོན	-3587
▁བསྣུན	-3588
▁བྱེའུ	-3589
▁འཕྱོར	-3590
▁ལོ༡༩༨	-3591
▁སྒྱིད	-3592
▁ཁྲི༡༠༠	-3593
▁ཟླ༡༠ཚེས	-3594
༦༡	-3595
རྒ	-3596
ྡན	-3597
གཡས	-3598
འཇར	-3599
ྐབས	-3600
▁༤༥	-3601
༨ཟིན	-3602
ཁྱོད	-3603
གྲངས	-3604
▁༡༢༠	-3605
▁༡༩༠	-3606
▁ཀེང	-3607
▁གོལ	-3608
▁ཏེར	-3609
▁དམས	-3610
▁དོས	-3611
▁ནིག	-3612
▁བགམ	-3613
▁བྱན	-3614
▁མ༡༠	-3615
▁མཐེ	-3616
▁རའོ	-3617
▁རིབ	-3618
▁རྦབ	-3619
▁༢༠ཡི	-3620
▁༥བའི	-3621
▁ཁྲོས	-3622
▁དཔའི	-3623
▁བཞིད	-3624
▁བོའང	-3625
▁འཁོས	-3626
▁ཧྲིང	-3627
▁དྲུབས	-3628
▁ཟླ༩པར	-3629
▁འཁྱུད	-3630
▁འགྲོར	-3631
▁ཕྱུར༡༢	-3632
▁བསྡོངས	-3633
▁ཟླ༥ཚེས	-3634
▁༢༠༠༢ལོར	-3635
▁༢༠༠༤ལོར	-3636
▁པའིཀྲུང	-3637
▁༢༠༠༧ལོའི	-3638
▁གཉིསསློབ	-3639
ཕོ	-3640
ཟས	-3641
ཨོ	-3642
ྒོ	-3643
༦གི	-3644
གནང	-3645
སོན	-3646
▁ངྷ	-3647
▁པའ	-3648
༠༠ཡན	-3649
༣༠ཡི	-3650
སེམས	-3651
ྒྲིག	-3652
▁༨པར	-3653
▁ཀྱུ	-3654
▁གའུ	-3655
▁ཏེལ	-3656
▁ཏོར	-3657
▁དངས	-3658
▁ཕྱྭ	-3659
▁བེར	-3660
▁འཇབ	-3661
▁རྩས	-3662
▁སྦར	-3663
▁སྲུ	-3664
▁ཧྲོ	-3665
༡༢པའི	-3666
འཕྲིན	-3667
▁༡༩༨༠	-3668
▁༥ཉིན	-3669
▁༩ཉིན	-3670
▁གསིང	-3671
▁ནིལོ	-3672
▁བྲུས	-3673
▁མཆོར	-3674
▁ཟེགས	-3675
▁འཇུས	-3676
▁རྟུལ	-3677
▁སྐེམ	-3678
▁སྒྲས	-3679
▁དྲེགས	-3680
▁པོཞེས	-3681
▁བཀྲུས	-3682
▁བརྡུང	-3683
▁ཟླ༣པར	-3684
▁འབྲེག	-3685
▁སྣེའི	-3686
༣༠༠༠ལྷག	-3687
▁༢༠༠༨ལོ	-3688
▁བཀྲོངས	-3689
▁བརྒྱུས	-3690
▁ལོ༢༠༡༤	-3691
▁འདུགརྒྱ	-3692
▁༢༠༠༦ལོའི	-3693
▁ལོ༢༠༡༢ལོར	-3694
༨༤	-3695
༩༤	-3696
ཐོ	-3697
ཨེ	-3698
ྟེ	-3699
༣༤༥	-3700
༦ནས	-3701
གཏམ	-3702
ནུས	-3703
བརྡ	-3704
སྐར	-3705
༡འཕར	-3706
བདམས	-3707
▁ཀོར	-3708
▁གཞང	-3709
▁གེས	-3710
▁གླས	-3711
▁ཇིང	-3712
▁ཐོང	-3713
▁ཕྱུ	-3714
▁ལུམ	-3715
▁སིག	-3716
▁ཨེན	-3717
༠༠ཟིན	-3718
སྐྱེལ	-3719
▁༤ཚེས	-3720
▁༧ཉིན	-3721
▁དུགས	-3722
▁དྲེལ	-3723
▁བཀྱག	-3724
▁བརྙས	-3725
▁མདོས	-3726
▁མཞེས	-3727
▁མྱོས	-3728
▁ལོ༦༠	-3729
▁ལྡེབ	-3730
▁ཁྲི༢༥	-3731
▁ཁྲི༢༧	-3732
▁བ༤པའི	-3733
▁བསྒོམ	-3734
▁རློབས	-3735
▁༢༠༡༣ལོ	-3736
▁གསུམདང	-3737
▁ཟླ༨ཚེས	-3738
▁འདུགཁོ	-3739
▁འདུགཟླ	-3740
▁སྒྱོགས	-3741
▁ཀྱིསབོད	-3742
▁༢༠༠༥ལོའི	-3743
▁ཟླཚེསཉིན	-3744
▁ནས༢༠༡༥ལོའི	-3745
༧༩	-3746
༨༢	-3747
ཀོང	-3748
བདག	-3749
འོད	-3750
ཡོན	-3751
▁༣༤	-3752
▁༧༥	-3753
▁ཁད	-3754
▁ཁན	-3755
▁ཇུ	-3756
▁མ༥	-3757
▁ཙོ	-3758
༢༠དང	-3759
༩པའི	-3760
གྲུབ	-3761
གྲོས	-3762
བཀོལ	-3763
ལྕགས	-3764
སྲུང	-3765
▁༣༠༠	-3766
▁ཀོས	-3767
▁གཅར	-3768
▁ཅའོ	-3769
▁ཅོང	-3770
▁ཐུད	-3771
▁ཕའི	-3772
▁བྲེ	-3773
▁བླུ	-3774
▁ཚོག	-3775
▁འོལ	-3776
▁ཧོས	-3777
▁ཁྲོལ	-3778
▁གཞུས	-3779
▁གྲའི	-3780
▁དཔྱི	-3781
▁དྲེད	-3782
▁ནས༢༠	-3783
▁བཀོག	-3784
▁བཅགས	-3785
▁བབཅས	-3786
▁བཟའི	-3787
▁བཤངས	-3788
▁བྱེར	-3789
▁བྲིད	-3790
▁ཚིམས	-3791
▁འཇུར	-3792
▁ལོ༡༨	-3793
▁ལྡོང	-3794
▁སྒྲུ	-3795
༢༠ལོའི	-3796
▁༡༠ཉིན	-3797
▁༡༢ཉིན	-3798
▁༢༡ཉིན	-3799
▁༣༠ལྷག	-3800
▁ནི༢༠༠	-3801
▁བཀྲེས	-3802
▁བརྫངས	-3803
▁བསོགས	-3804
▁འཁྲིས	-3805
▁འཁྲོལ	-3806
▁ལྐུགས	-3807
▁སྤྱིལ	-3808
▁༢༠༠ལྷག	-3809
▁བསྒྲིག	-3810
▁བསྲུངས	-3811
▁ཟླ༢ཚེས	-3812
▁རྒྱུངས	-3813
▁ཟླ༡༢ཚེས	-3814
▁འདུགགསར	-3815
▁འདུགའོན	-3816
▁འདུགཡིན	-3817
▁བཞིའིའཐབ	-3818
▁ནས༢༠༡༣ལོའི	-3819
▁ལོ༢༠༡༣ལོའི	-3820
༨༣	-3821
ངར	-3822
ཏེ	-3823
རག	-3824
༡༠ལ	-3825
༡༣༠	-3826
༤ཙམ	-3827
ཁོང	-3828
ཆུང	-3829
དབང	-3830
དུད	-3831
དེར	-3832
བུད	-3833
འོས	-3834
ཡིད	-3835
སྟེ	-3836
ྲོག	-3837
▁ཀྭ	-3838
▁ཕད	-3839
༤འཕར	-3840
༥༠ཙམ	-3841
༩༠ཡན	-3842
གཏེར	-3843
གཞིར	-3844
མཆོག	-3845
སྣོན	-3846
ྒྲོལ	-3847
▁ཁྲམ	-3848
▁གིར	-3849
▁ཉིལ	-3850
▁བཀབ	-3851
▁བཟས	-3852
▁མཆེ	-3853
▁ཟླས	-3854
▁འཛག	-3855
▁འུན	-3856
▁ལྷར	-3857
▁ལྷེ	-3858
▁༢༠༣༠	-3859
▁ཁུགས	-3860
▁ཁྱུར	-3861
▁གསོམ	-3862
▁གྲོད	-3863
▁ཏུའོ	-3864
▁བཀྲལ	-3865
▁བསྲི	-3866
▁མཆེར	-3867
▁ལོ༥༠	-3868
▁སྟེན	-3869
▁ཧྲུལ	-3870
▁༡༢པའི	-3871
▁༡༨ཉིན	-3872
▁ནསབོད	-3873
▁ཕྱུར༧	-3874
▁བརྟུལ	-3875
▁བསྐྱི	-3876
▁འདིའང	-3877
▁རྫོངས	-3878
▁སྤྱིན	-3879
▁ཀྱིསལོ	-3880
▁གསུམལས	-3881
▁ཟླ༡༢པར	-3882
▁ཟླ༤ཚེས	-3883
▁ཚོའིགྲོང	-3884
༩༦	-3885
ཀླ	-3886
གུང	-3887
བཅའ	-3888
ཞིན	-3889
ིམས	-3890
ྟེང	-3891
▁༣༩	-3892
▁ཐྲ	-3893
༠༠བར	-3894
༡བཅས	-3895
༧ཟིན	-3896
གྲོན	-3897
བསྒྲ	-3898
མཛུབ	-3899
འགྲོ	-3900
▁ཀའང	-3901
▁གཅལ	-3902
▁གཟོ	-3903
▁ཆིལ	-3904
▁དབྲ	-3905
▁ནའོ	-3906
▁པནས	-3907
▁ཕུབ	-3908
▁བེེ	-3909
▁ཚིས	-3910
▁འཁར	-3911
▁རུར	-3912
▁རེལ	-3913
▁ཤངས	-3914
▁སྔས	-3915
▁ཨུས	-3916
དངབོད	-3917
དཔྱིད	-3918
▁ཁྲིག	-3919
▁ཁྲིལ	-3920
▁གཏུབ	-3921
▁གཟུང	-3922
▁ངོ༢༠	-3923
▁དགུར	-3924
▁བསྒར	-3925
▁མཚེར	-3926
▁ཞིའུ	-3927
▁འཆོས	-3928
▁འཛུབ	-3929
▁རུང་	-3930
▁རྔོག	-3931
▁རྩིད	-3932
▁ལེའི	-3933
▁ལོ༡༦	-3934
▁སིངྒ	-3935
▁དཔྱིས	-3936
▁བརྡབས	-3937
▁འཁྲིར	-3938
▁ལོ༡༩༥	-3939
▁སྲིབས	-3940
▁༣༠༠ལྷག	-3941
▁༦༠འཁོར	-3942
▁གིསབོད	-3943
▁ཕྱུར༡༤	-3944
▁ཕྱུར༡༦	-3945
▁འཕྲོའི	-3946
▁༢༠༠༡ལོར	-3947
▁ཁྲིམསལག	-3948
▁ཟླ༡༡ཚེས	-3949
▁ལྗོངསཞེས	-3950
▁རྫོངཆུསཁག	-3951
༥༢	-3952
ཐག	-3953
ཕན	-3954
མུ	-3955
མོ	-3956
ྷག	-3957
༡༡༢	-3958
༩ལོ	-3959
ཉེན	-3960
ཚུན	-3961
འབྱ	-3962
ོདང	-3963
ྱེད	-3964
▁༣༧	-3965
▁༤༦	-3966
▁༥༣	-3967
▁པཀ	-3968
▁བཛ	-3969
▁མ༣	-3970
▁ཝི	-3971
▁ཝོ	-3972
༡༢བར	-3973
༣བཏང	-3974
༥༠ལས	-3975
༥ཡིན	-3976
དགོས	-3977
དབྱར	-3978
བླངས	-3979
མཚམས	-3980
འཚོལ	-3981
ླེབས	-3982
▁ཀུམ	-3983
▁གཤང	-3984
▁གཤེ	-3985
▁གླག	-3986
▁དབབ	-3987
▁བུལ	-3988
▁མ༡༥	-3989
▁མདང	-3990
▁མོབ	-3991
▁འཁང	-3992
▁འུག	-3993
▁རྒད	-3994
▁རླན	-3995
▁སའང	-3996
▁ཧིག	-3997
༡༨ཀྱི	-3998
༥༠ཡོད	-3999
༥༠ལོར	-4000
དབྱིན	-4001
འགྱུར	-4002
▁༡༠༠༠	-4003
▁༢ཉིན	-4004
▁༤༠༠༠	-4005
▁༤པའི	-4006
▁༥༠༠༠	-4007
▁གྲིམ	-4008
▁ཆའི༩	-4009
▁ཏོགས	-4010
▁བརྡབ	-4011
▁བྱིང	-4012
▁མཐུས	-4013
▁མོའང	-4014
▁ཛིའི	-4015
▁ཞུའེ	-4016
▁འཇོར	-4017
▁འཚོས	-4018
▁འཛགས	-4019
▁རྨིག	-4020
▁ལྷུབ	-4021
▁སྙོལ	-4022
༧༠༠ལྷག	-4023
བསྒྱུར	-4024
▁༡༩ཉིན	-4025
▁༣༠ཉིན	-4026
▁ཁྲི༤༠	-4027
▁བསྣོལ	-4028
▁མདོགས	-4029
▁འཆརནང	-4030
▁འཐིམས	-4031
▁ལྡེའུ	-4032
▁༢༠༠༧ལོ	-4033
▁ཁྱེརདང	-4034
▁ཟླ༣ཚེས	-4035
▁ཟླ༧ཚེས	-4036
▁འདུགམི	-4037
▁འདུགལྷ	-4038
▁འབྲུའི	-4039
▁ལོ༢༠༡༥	-4040
▁སོངཞེས	-4041
▁༢༠༠༠ལྷག	-4042
▁༢༠༢༠ལོར	-4043
▁ཆོགའདིར	-4044
▁བྱེདཅེས	-4045
ཀན	-4046
ཁང	-4047
ཏན	-4048
༢༠ལ	-4049
༤༠༠	-4050
༦ཙམ	-4051
༨༠༠	-4052
ཇུག	-4053
ནུབ	-4054
▁༦༥	-4055
▁བ༡	-4056
▁སག	-4057
༡༩༤༩	-4058
༡ཡིན	-4059
༣༠ཙམ	-4060
ཕྱིན	-4061
མཐུན	-4062
▁གུག	-4063
▁ཐུལ	-4064
▁ཐྲི	-4065
▁ཕའེ	-4066
▁ཕིག	-4067
▁བ༡༡	-4068
▁བཛྲ	-4069
▁ཙེར	-4070
▁ཚའོ	-4071
▁ཚིང	-4072
▁ཝིན	-4073
▁ཝེས	-4074
▁འདན	-4075
▁ལིག	-4076
▁སྙག	-4077
▁ཧྲག	-4078
འབྲོག	-4079
▁༡༠ཡི	-4080
▁༣ཚེས	-4081
▁༩བའི	-4082
▁ཁྲིས	-4083
▁གདུས	-4084
▁གཞིན	-4085
▁ཉོའི	-4086
▁དེལོ	-4087
▁ནའང་	-4088
▁ནསལྷ	-4089
▁བཏུབ	-4090
▁བདུག	-4091
▁མཆིལ	-4092
▁ཚུའེ	-4093
▁འཇོལ	-4094
▁འཕོས	-4095
▁འཕྱང	-4096
▁སྐུང	-4097
▁སྟེས	-4098
▁སྣབས	-4099
▁སྲོད	-4100
▁༡༠བའི	-4101
▁༡༡ཉིན	-4102
▁༡༦ཉིན	-4103
▁༢༧ཉིན	-4104
▁ཁྱེའུ	-4105
▁ཆགབོད	-4106
▁དཔྱངས	-4107
▁ཕྱུར༦	-4108
▁འདྲིལ	-4109
▁འཕྲེང	-4110
▁ཡིགགི	-4111
▁རྩིབས	-4112
▁སྒྲེག	-4113
༢༠༠༠ལྷག	-4114
▁ཁྲིལྷག	-4115
▁གཅིགདང	-4116
▁ནསསློབ	-4117
▁པའིདུས	-4118
▁པའིའཐབ	-4119
▁བ༡༢པའི	-4120
▁ཟླ༡༠པར	-4121
▁འདུགརང	-4122
▁འཕྱུགས	-4123
▁སྤྲིངས	-4124
༢༠༡༠ལོའི	-4125
▁༡༩༨༤ལོར	-4126
▁༡༩༩༤ལོར	-4127
▁༡༩༩༧ལོར	-4128
▁ཁྲི༢ལྷག	-4129
▁ཕྱུརབཏང	-4130
▁འདུགགཞན	-4131
▁སྒོར༢༠༠	-4132
▁རྫོངགྲོང	-4133
▁ལྗོངས༥༡༠༠	-4134
▁ལོ༢༠༡༡ལོའི	-4135
ངོ	-4136
མད	-4137
ཡོ	-4138
ྱར	-4139
༣ཙམ	-4140
༧ནས	-4141
ཅུང	-4142
ཉམས	-4143
ཐུན	-4144
བཅུ	-4145
ྤེལ	-4146
▁༣༣	-4147
▁༩༣	-4148
▁ཕས	-4149
༡༠ཡི	-4150
༦འཕར	-4151
༧འཕར	-4152
༩འཕར	-4153
དངུལ	-4154
དཔེར	-4155
བདུན	-4156
རྣམས	-4157
▁༡དང	-4158
▁༥བར	-4159
▁ཀེན	-4160
▁ཇོས	-4161
▁ནེམ	-4162
▁ཕབས	-4163
▁མ༥༠	-4164
▁མྱི	-4165
▁ཟོམ	-4166
▁འཇག	-4167
▁རུན	-4168
▁རྐན	-4169
▁སྲམ	-4170
༣༠ཡོད	-4171
▁གཉུག	-4172
▁གདུབ	-4173
▁གཟུར	-4174
▁གཡིས	-4175
▁གྱའི	-4176
▁གྱིམ	-4177
▁ཉིའུ	-4178
▁ཏིའི	-4179
▁དེའུ	-4180
▁ནོངས	-4181
▁བཀྲས	-4182
▁བསངས	-4183
▁བསླས	-4184
▁བླུག	-4185
▁མོའམ	-4186
▁ཚེམས	-4187
▁ཞྭའི	-4188
▁འབོལ	-4189
▁རོའུ	-4190
▁ལྡིར	-4191
▁སྤུད	-4192
༢༠༠ཡོད	-4193
▁༢༤ཉིན	-4194
▁༤༠ལྷག	-4195
▁ཁྲི༤༥	-4196
▁པའིལས	-4197
▁བཅུགས	-4198
▁བསྒྲག	-4199
▁འཁོགས	-4200
▁འགེབས	-4201
▁འཐིབས	-4202
▁རྡུགས	-4203
▁སྐྱིལ	-4204
▁སྐྱུང	-4205
▁སྨྲིག	-4206
▁ཧྲོའུ	-4207
༢༠༡༣ལོར	-4208
▁༢༠༠༦ལོ	-4209
▁གྲངས༡༡	-4210
▁ཆོགཅེས	-4211
▁ཆོགདོན	-4212
▁འཁྲིགས	-4213
▁༢༠༠༠ལོར	-4214
▁ཁྲི༣ལྷག	-4215
▁སྒོར༡༠༠	-4216
▁ཀྱིསསློབ	-4217
▁གཅིགབསིལ	-4218
▁ནས༢༠༡༤ལོའི	-4219
▁ལོ༢༠༡༤ལོའི	-4220
༧༣	-4221
མག	-4222
ཞང	-4223
ཞལ	-4224
ལན	-4225
ྦྲ	-4226
༡༢ལ	-4227
གླུ	-4228
དམག	-4229
བཞི	-4230
རྗེ	-4231
རྨང	-4232
ལྗང	-4233
ལྟེ	-4234
སྣང	-4235
ྐོར	-4236
ྣོད	-4237
ྩོམ	-4238
▁༠༠	-4239
▁༤༢	-4240
▁ཤྲ	-4241
༠༠ལས	-4242
༡༢ལོ	-4243
༤༠༠༠	-4244
༨༠ཡན	-4245
༨ཀྱི	-4246
ཁྱེད	-4247
གྲིབ	-4248
བྱམས	-4249
ཞུགས	-4250
རོགས	-4251
ྤྱིར	-4252
▁ཀློ	-4253
▁ཁའོ	-4254
▁ཁེན	-4255
▁གཟས	-4256
▁གྷི	-4257
▁དྲར	-4258
▁བཤམ	-4259
▁འཆའ	-4260
▁ཡུད	-4261
▁ཧེང	-4262
༨༠ལྷག	-4263
བཀྲམས	-4264
འབྱོར	-4265
▁༡༥ནས	-4266
▁༡ཚེས	-4267
▁༥པའི	-4268
▁ཀྲུན	-4269
▁ཀྲེར	-4270
▁གཡོར	-4271
▁གླགས	-4272
▁ནསལོ	-4273
▁བཟླས	-4274
▁བསྲན	-4275
▁མནབས	-4276
▁ཞོའི	-4277
▁འཐིམ	-4278
▁འཛོམ	-4279
▁ཡུའུ	-4280
▁རྔམས	-4281
▁རྣོན	-4282
▁རྦུར	-4283
▁ལབོད	-4284
▁ལུའེ	-4285
▁ལོ༡༢	-4286
▁སྦངས	-4287
▁སྨིས	-4288
▁སྲུབ	-4289
༤༠༠ལྷག	-4290
༨༠༠ལྷག	-4291
▁༡༢ཚེས	-4292
▁༢༠ཉིན	-4293
▁༢༥ཉིན	-4294
▁༢༨ཉིན	-4295
▁༢༩ཉིན	-4296
▁༣༡ཉིན	-4297
▁༥༠ལྷག	-4298
▁ཁྲི༣༥	-4299
▁གཞིདང	-4300
▁གཤོངས	-4301
▁གྱིསང	-4302
▁ཅནགྱི	-4303
▁དངབོད	-4304
▁དྲྭའི	-4305
▁བ༣པའི	-4306
▁བགྱིད	-4307
▁བཟུང་	-4308
▁བཤིགས	-4309
▁མོཞེས	-4310
▁འཕིགས	-4311
▁འབིགས	-4312
▁རྨེའུ	-4313
▁སྦྲའི	-4314
▁ཧྲིའི	-4315
▁ཨུདཏང	-4316
▁༡༠༠ལྷག	-4317
▁ཁྱེརཁག	-4318
▁ཁྲི༢༠༠	-4319
▁བའིབོད	-4320
▁བསྐྱིལ	-4321
▁འགྲིགས	-4322
▁འདུགཉེ	-4323
▁རྒྱུདེ	-4324
▁སྦྱོངས	-4325
▁སྲིདཅེས	-4326
▁འདུགཐེངས	-4327
▁འདུགརྒྱལ	-4328
▁སྒོར༡༠༠༠	-4329
▁ལོ༢༠༡༡ལོར	-4330
༥༣	-4331
ཏྣ	-4332
ནག	-4333
སྨ	-4334
ྟག	-4335
༡༡ལ	-4336
༡༣༥	-4337
༡༦༠	-4338
༤ནས	-4339
ཁམས	-4340
ཁུལ	-4341
ཉིས	-4342
དགའ	-4343
ཕུལ	-4344
བྲག	-4345
ཡོང	-4346
རྒན	-4347
སྙན	-4348
སྡེ	-4349
ྟོད	-4350
▁༤༨	-4351
▁༥༥	-4352
▁༦༤	-4353
▁༨༢	-4354
▁དི	-4355
▁ཨག	-4356
༡༡དང	-4357
༡ལྷག	-4358
༢༠ནས	-4359
༢༥དང	-4360
ཁྱོན	-4361
གཏོད	-4362
གཞིས	-4363
མཇུག	-4364
རླུང	-4365
ྤྱོད	-4366
▁༡༩༤	-4367
▁༡ནས	-4368
▁གཙག	-4369
▁གིག	-4370
▁གྱན	-4371
▁ཉུག	-4372
▁ཏྲི	-4373
▁ནོག	-4374
▁ཕྲི	-4375
▁བ༡༠	-4376
▁ལིར	-4377
▁ལོ༥	-4378
▁སོམ	-4379
༡༣ཡོད	-4380
༡༨ཡོད	-4381
༢༢ཡོད	-4382
༢༧ཉིན	-4383
བརྒྱབ	-4384
བརྩམས	-4385
▁༢༠ཙམ	-4386
▁༤བའི	-4387
▁༦ཉིན	-4388
▁ཀིའི	-4389
▁ཁུའུ	-4390
▁གཅེར	-4391
▁གཞོག	-4392
▁གསེག	-4393
▁ཉེའི	-4394
▁ཏེལོ	-4395
▁ཐེའུ	-4396
▁དཔགས	-4397
▁ཕྲིན	-4398
▁བུའང	-4399
▁ཟླ༨པ	-4400
▁འདེང	-4401
▁ཡིགལ	-4402
▁རྩིབ	-4403
▁རྩེས	-4404
▁ལེའང	-4405
▁ལེའོ	-4406
▁ལོ༡༣	-4407
▁སྨི༥	-4408
▁ཨོའུ	-4409
▁༡༣ཉིན	-4410
▁༦༠ལྷག	-4411
▁ཁྲི༣༠	-4412
▁ཁྲོའི	-4413
▁གདེངས	-4414
▁གཙོའམ	-4415
▁གཞིའང	-4416
▁གསུམལ	-4417
▁དབྱིག	-4418
▁དྲུགས	-4419
▁བཏུམས	-4420
▁བཞིདང	-4421
▁བརྐྱང	-4422
▁བརྒྱག	-4423
▁བརྩེས	-4424
▁ཟླ༡པོ	-4425
▁འགྱེལ	-4426
▁འཆརདུ	-4427
▁འདུགཐ	-4428
▁འདུགཧ	-4429
▁སྐྱེར	-4430
▁སྤུའི	-4431
▁སྤྲིས	-4432
▁ནསལོའི	-4433
▁ཕྱུར༡༧	-4434
▁བསྐོངས	-4435
▁༡༩༩༣ལོར	-4436
▁༡༩༩༦ལོར	-4437
▁༡༩༩༨ལོར	-4438
▁ཁྱེརགྱི	-4439
▁གྱིསབོད	-4440
▁དེབབསིལ	-4441
▁བའིབྱེད	-4442
▁མདོགསྒོ	-4443
▁མཚེའུའི	-4444
▁འདུགདུས	-4445
▁འདུགདེར	-4446
▁༢༠༠༣ལོའི	-4447
གཅ	-4448
ཆེ	-4449
རྔ	-4450
ྲལ	-4451
༨ནས	-4452
༩ཡི	-4453
ཀུང	-4454
ཁྱད	-4455
གྲང	-4456
ཐབས	-4457
ཐུབ	-4458
དྲི	-4459
བཙན	-4460
མངའ	-4461
མེད	-4462
འདས	-4463
ཡུན	-4464
རྐང	-4465
སྒོ	-4466
ྙེད	-4467
▁༣༡	-4468
▁༤༣	-4469
▁པ༥	-4470
▁མ༢	-4471
▁མ༦	-4472
▁སྭ	-4473
༡༠ཙམ	-4474
༢འཕར	-4475
༦ཡིན	-4476
༦ལྷག	-4477
༨བཏང	-4478
དགུན	-4479
བརྩེ	-4480
རྟགས	-4481
སྐྱེ	-4482
▁༤ཙམ	-4483
▁༥དང	-4484
▁༧དང	-4485
▁༧པར	-4486
▁གངྒ	-4487
▁གདུ	-4488
▁གཟུ	-4489
▁ཆེམ	-4490
▁ཉོག	-4491
▁ཏའེ	-4492
▁ཐེང	-4493
▁དབའ	-4494
▁པདེ	-4495
▁པཡི	-4496
▁བཀྭ	-4497
▁བདར	-4498
▁མ༡༢	-4499
▁མཉན	-4500
▁ཝེན	-4501
▁ཝེར	-4502
▁ཞུད	-4503
▁ཞེད	-4504
▁འགད	-4505
▁འདག	-4506
▁འོར	-4507
▁རྗས	-4508
▁ཤྲི	-4509
▁སུབ	-4510
འདེམས	-4511
▁༣༠༠༠	-4512
▁༣ཉིན	-4513
▁གཅུས	-4514
▁གཏགས	-4515
▁གཙོག	-4516
▁པེའི	-4517
▁བརྡས	-4518
▁བྱའང	-4519
▁བྱིལ	-4520
▁མདེལ	-4521
▁ཟླབར	-4522
▁ཟློག	-4523
▁འཇོང	-4524
▁འདོམ	-4525
▁འཚངས	-4526
▁ཡུགས	-4527
▁སཞེས	-4528
▁སྣེར	-4529
▁སྤོམ	-4530
▁ཧྲུན	-4531
ཆོསཞེས	-4532
▁༡༠ལྷག	-4533
▁༢༢ཉིན	-4534
▁ཁྲི༢༣	-4535
▁ཁྲི༢༩	-4536
▁གྱིལོ	-4537
▁ཆའི༡༡	-4538
▁ཆེནརང	-4539
▁ཕྱུར༤	-4540
▁ཕྱུར༨	-4541
▁བ༧པའི	-4542
▁བརྫུས	-4543
▁བསློག	-4544
▁རབས༨༠	-4545
▁རབས༩༠	-4546
▁སྔོགས	-4547
▁སྲོགས	-4548
▁༢༠༠༢ལོ	-4549
▁ཁྱེར༧༤	-4550
▁དཀྲིགས	-4551
▁དུརྒྱལ	-4552
▁པའིའགོ	-4553
▁ཕྱུར༡༩	-4554
▁ཚོགྲོང	-4555
▁ཟླ༡༡པར	-4556
▁ཟླ༡པོར	-4557
▁རྒྱུའང	-4558
▁ལེནཞེས	-4559
▁༡༠༠༠ལྷག	-4560
▁༡༩༨༡ལོར	-4561
▁༡༩༨༥ལོར	-4562
▁ཁྲི༡༠༠༠	-4563
▁ཐོགརྒྱལ	-4564
▁འདུགགནས	-4565
▁འདུགཟེར	-4566
▁༢༠༠༢ལོའི	-4567
▁བཞིའིགནད	-4568
▁འཛིནཀྲུང	-4569
ཉོ	-4570
རབ	-4571
ལི	-4572
སི	-4573
སྡ	-4574
ྐལ	-4575
ྐུ	-4576
ྡྷ	-4577
ྤྲ	-4578
༡༩༥	-4579
༢ཙམ	-4580
༥༠ལ	-4581
༧ཙམ	-4582
༨བར	-4583
༩ནས	-4584
གདན	-4585
དམར	-4586
ཕྱག	-4587
མཛད	-4588
ཚགས	-4589
ཟུང	-4590
རྩད	-4591
སྐུ	-4592
སྦྲ	-4593
ེདང	-4594
ོལས	-4595
ྙེས	-4596
▁༧༨	-4597
▁༩༥	-4598
▁ཏར	-4599
▁ཏྭ	-4600
༡༢༠༠	-4601
༡༥དང	-4602
༡༦དང	-4603
༢༠༣༠	-4604
༣ལྷག	-4605
༦བཏང	-4606
༧གྱི	-4607
ཝུའུ	-4608
སྒོར	-4609
སྲོལ	-4610
ྒྱུད	-4611
ྲིབས	-4612
▁༡༡༣	-4613
▁༡༣༠	-4614
▁༣དང	-4615
▁༥ནས	-4616
▁༩བར	-4617
▁ཅོད	-4618
▁ཆིས	-4619
▁ནང་	-4620
▁མ༡༡	-4621
▁མ༡༣	-4622
▁རཏྣ	-4623
▁ཤའོ	-4624
▁སའེ	-4625
༡༠ཡིས	-4626
༡༠ཡོད	-4627
༢༠ཡོད	-4628
བརྩོན	-4629
འདེབས	-4630
སྐྱེས	-4631
▁༤ཉིན	-4632
▁༨ཚེས	-4633
▁གྲིས	-4634
▁ཇུའི	-4635
▁དཔྲལ	-4636
▁དྷརྨ	-4637
▁པརདང	-4638
▁བགྲད	-4639
▁བཅུས	-4640
▁བཙིར	-4641
▁བཞེང	-4642
▁བཟོར	-4643
▁བསུབ	-4644
▁བསེར	-4645
▁འཐོག	-4646
▁ཡུའེ	-4647
▁ལོབས	-4648
▁ལྟེབ	-4649
▁སྨིད	-4650
▁སྨྲེ	-4651
༡༠༠ཟིན	-4652
▁༡༠ཚེས	-4653
▁ཁངཞེས	-4654
▁གཙུགས	-4655
▁གྲངས༣	-4656
▁གྲངས༧	-4657
▁དཀྱེལ	-4658
▁དབྱེན	-4659
▁ཕྱུརལ	-4660
▁ཕྲོགས	-4661
▁བ༥པའི	-4662
▁བཀྱགས	-4663
▁བཀྱོན	-4664
▁འགྲངས	-4665
▁ཡིགདང	-4666
▁རབས༢༡	-4667
▁སྒོར༣	-4668
▁སྤོངས	-4669
▁སྦྱོད	-4670
▁༢༠༠༠ལོ	-4671
▁ཐབསཀྱི	-4672
▁ཕྱུར༢༠	-4673
▁བཀླུབས	-4674
▁བསྐྱབས	-4675
▁ཟླ༡པའི	-4676
▁འགྱིངས	-4677
▁འདུགསྒ	-4678
▁༡༩༩༡ལོར	-4679
▁༡༩༩༩ལོར	-4680
▁གཞིའིནང	-4681
▁ཆོགཀྲུང	-4682
▁པའིབྱེད	-4683
▁བསྒྲིབས	-4684
▁༡༩༩༤ལོའི	-4685
▁༡༩༩༥ལོའི	-4686
▁༢༠༠༡ལོའི	-4687
▁༢༠༡༦ལོའི	-4688
▁ལོ༦༠འཁོར	-4689
▁ཁྲི༡༠༠ལྷག	-4690
▁ལོ༢༠༡༠ལོར	-4691
▁ལོ༢༠༡༥ལོའི	-4692
ཁུ	-4693
ཟབ	-4694
ཡག	-4695
ལེ	-4696
ཨང	-4697
༡༠༨	-4698
༡༡༠	-4699
༢༨༠	-4700
ཁོས	-4701
ཁྲི	-4702
དཀར	-4703
དེས	-4704
བཤད	-4705
ཚིག	-4706
འགག	-4707
སྐལ	-4708
▁༧༦	-4709
▁པ༨	-4710
▁མ༨	-4711
▁ཡམ	-4712
༡༢དང	-4713
༡༨དང	-4714
༢༠ཡི	-4715
༢༢དང	-4716
༢ཡིན	-4717
༥བཏང	-4718
༨པའི	-4719
ཁྱུང	-4720
གཡོན	-4721
འདུག	-4722
ྐྱེས	-4723
▁༣ནས	-4724
▁༤དང	-4725
▁ཀའེ	-4726
▁ཁུད	-4727
▁ཁུས	-4728
▁ཁོབ	-4729
▁གཅི	-4730
▁ཆོམ	-4731
▁ཉིག	-4732
▁ཏུའ	-4733
▁ཕོང	-4734
▁བཞོ	-4735
▁བཤར	-4736
▁མ༣༠	-4737
▁འཛི	-4738
▁ཡའེ	-4739
▁རྔུ	-4740
▁ལམ༣	-4741
▁ལྗར	-4742
▁ཤོན	-4743
▁སིབ	-4744
▁སྟི	-4745
▁སྦང	-4746
▁སྩལ	-4747
▁སྲོ	-4748
▁ཨེེ	-4749
༡༥ཡོད	-4750
༢༥ཡོད	-4751
༢༨ཉིན	-4752
བསྐྱར	-4753
སླེབས	-4754
▁༡༠དང	-4755
▁༡༠བར	-4756
▁༦༠༠༠	-4757
▁གཞེས	-4758
▁གཡེམ	-4759
▁གསོང	-4760
▁གིསང	-4761
▁ངོ༡༣	-4762
▁ཐོངས	-4763
▁དངམི	-4764
▁དམུལ	-4765
▁དྲུད	-4766
▁ནསམི	-4767
▁ཕྱགས	-4768
▁བཏང་	-4769
▁བརྐུ	-4770
▁བོངས	-4771
▁བྱུས	-4772
▁མོདང	-4773
▁ཟོའོ	-4774
▁འཇིབ	-4775
▁འདེབ	-4776
▁འཕུད	-4777
▁རྨོད	-4778
▁ལྟུང	-4779
▁ལྡེང	-4780
▁སྐུམ	-4781
▁སྐྱས	-4782
▁སྙིད	-4783
▁སྣོལ	-4784
▁སླའི	-4785
▁༡༢༣༤༥	-4786
▁༢༣ཉིན	-4787
▁ཁྲི༢༨	-4788
▁གྲངས༨	-4789
▁ཆའི༣༠	-4790
▁ནིབོད	-4791
▁པརགྱི	-4792
▁བཀྲའི	-4793
▁བསྙེག	-4794
▁མཆུའི	-4795
▁ཟླ༤བར	-4796
▁ཟླ༥བར	-4797
▁ཟླ༩བར	-4798
▁འཐོམས	-4799
▁ཡིགདེ	-4800
▁ཡིགནང	-4801
▁སྐྲའི	-4802
▁སྤྱོར	-4803
▁སྨྲོས	-4804
༢༠༡༡ལོར	-4805
༥༠༠༠ལྷག	-4806
▁༢༠༠༡ལོ	-4807
▁༢༠༠༤ལོ	-4808
▁༦༠༠ལྷག	-4809
▁ནིརྒྱལ	-4810
▁པའིརྣམ	-4811
▁པོསོགས	-4812
▁འདུགདྲ	-4813
▁སྐྱེམས	-4814
༢༠༠༩ལོའི	-4815
▁ཀྱིསློབ	-4816
▁གཤིསབོད	-4817
▁གིསཀྲུང	-4818
▁གིསསློབ	-4819
▁དགོསཔའི	-4820
▁པའིརྒྱལ	-4821
▁འདུགདོན	-4822
▁ཡིགསློབ	-4823
▁ཁྲི༡༠ལྷག	-4824
▁གཅིགསློབ	-4825
▁སྒོར༥༠༠༠	-4826
▁འདུགརྒྱུས	-4827
▁ལོ༢༠༡༣ལོར	-4828
༧༢	-4829
ྐར	-4830
ྐྱ	-4831
ྔར	-4832
ྡྲ	-4833
༡༦༨	-4834
༡༧༠	-4835
༡ཙམ	-4836
༧བར	-4837
ངོས	-4838
དབུ	-4839
དམའ	-4840
འཁྱ	-4841
▁༤༩	-4842
▁༨༥	-4843
▁བ༢	-4844
▁མ༧	-4845
▁ཟྭ	-4846
▁འེ	-4847
༡༤ཡི	-4848
༢ཀྱི	-4849
༣༠བར	-4850
༥༠དང	-4851
༦༠དང	-4852
༩༥ཡན	-4853
གཞོན	-4854
དྲུག	-4855
བཏོད	-4856
འགུལ	-4857
འབྲས	-4858
རེའི	-4859
སྒྱུ	-4860
ུབཅས	-4861
▁༦པར	-4862
▁༧ནས	-4863
▁ཁོན	-4864
▁གཉི	-4865
▁ཅེར	-4866
▁ཏེད	-4867
▁པ༡༡	-4868
▁ཕྱོ	-4869
▁བཅལ	-4870
▁བོལ	-4871
▁མ༡༩	-4872
▁མཉེ	-4873
▁མནོ	-4874
▁ཟིམ	-4875
▁ཟུམ	-4876
▁འཕག	-4877
▁འུད	-4878
▁རོས	-4879
▁རྩག	-4880
▁ལོ༣	-4881
▁ལྗི	-4882
▁ཤུད	-4883
▁སྟན	-4884
▁སླེ	-4885
▁ཧྭས	-4886
▁ཨོག	-4887
༡༤ཡོད	-4888
༡༨ཟིན	-4889
༣༥ཡོད	-4890
གཟུགས	-4891
དགོངས	-4892
འབྲིང	-4893
སྐྲུན	-4894
▁༡༠ནས	-4895
▁༢༠ནས	-4896
▁གཙེས	-4897
▁གསུས	-4898
▁གླུད	-4899
▁ཅིའམ	-4900
▁ཆེམས	-4901
▁དཔྱང	-4902
▁དམའི	-4903
▁བཀྭན	-4904
▁བཟེད	-4905
▁བཤུལ	-4906
▁བསྲེ	-4907
▁བྲོར	-4908
▁འགྱུ	-4909
▁རེའང	-4910
▁རྫིག	-4911
▁ལིའང	-4912
▁ལོ༡༤	-4913
▁ལོ༧༠	-4914
▁ལྡུད	-4915
▁སྦོལ	-4916
▁སྦྲམ	-4917
༢༠༡༣ལོ	-4918
དངསྲོལ	-4919
འགྲེམས	-4920
▁༡༧ཉིན	-4921
▁༡པོའི	-4922
▁༩༠ལྷག	-4923
▁ཁྱུའི	-4924
▁ཁྲི༢༤	-4925
▁ཁྲི༦༥	-4926
▁གཞིའམ	-4927
▁གཞོངས	-4928
▁གཟིའི	-4929
▁གིསལོ	-4930
▁ཆགདེབ	-4931
▁ནམཞེས	-4932
▁པའིམི	-4933
▁པའིརྩ	-4934
▁ཕྱུངས	-4935
▁བགྲོས	-4936
▁བསྡོམ	-4937
▁མདེའུ	-4938
▁ཚེསནས	-4939
▁ཟླ༤པར	-4940
▁ཟླ༥པར	-4941
▁འདུགབ	-4942
▁འདུགཨ	-4943
▁འཕྲུག	-4944
▁འབྲོས	-4945
▁རྨིད༤	-4946
▁ཧྲུའེ	-4947
▁༡༩༦༡ལོ	-4948
▁༡༩༨༥ལོ	-4949
▁༥༠༠ལྷག	-4950
▁༩༣འཁོར	-4951
▁གཞིཞེས	-4952
▁དྲུགགི	-4953
▁ཕྱུར༡༣	-4954
▁བརྒྱབས	-4955
▁ཟླ༩ཚེས	-4956
▁འགྱོགས	-4957
▁འཆརཞེས	-4958
▁འདྲོགས	-4959
▁སྐྱིའི	-4960
▁སྒོར༡༠	-4961
▁སྒྲུབས	-4962
▁སྤྲུགས	-4963
▁ཐོགཀྲུང	-4964
▁འདུགཁོས	-4965
▁འོགཀྲུང	-4966
▁རྒྱུདདང	-4967
▁སྐབསཔའི	-4968
▁སྒོར༣༠༠	-4969
▁སྒོར༦༠༠	-4970
▁༡༩༩༦ལོའི	-4971
▁༢༠༣༠ལོའི	-4972
▁ཀྱིསཀྲུང	-4973
▁གསོའིའགན	-4974
▁འདུགགཅིག	-4975
༩༣	-4976
ངལ	-4977
ཕབ	-4978
སོ	-4979
ིཏ	-4980
ླབ	-4981
༡༨ལ	-4982
༢༡༡	-4983
༢ནས	-4984
གཞས	-4985
གཡུ	-4986
ངེས	-4987
དཀའ	-4988
དཔའ	-4989
པོད	-4990
བཞག	-4991
མཁས	-4992
ཞིས	-4993
འཇའ	-4994
རིན	-4995
རེབ	-4996
ལྡན	-4997
ཧོར	-4998
ྐོག	-4999
ྱོང	-5000
▁ཆལ	-5001
▁ཙྭ	-5002
▁ཧབ	-5003
༢༠བར	-5004
༢བཏང	-5005
༢ལྷག	-5006
༤༠ཙམ	-5007
༤བཏང	-5008
༥༠ཡན	-5009
༥འཕར	-5010
༦༠ཙམ	-5011
༦པའི	-5012
གྲགས	-5013
དབྱི	-5014
དྲིལ	-5015
ནས༡༢	-5016
བརྙན	-5017
འདིས	-5018
འབྲི	-5019
ྒྱུན	-5020
▁༡༡༧	-5021
▁༡༣༥	-5022
▁༡༧༠	-5023
▁༢ནས	-5024
▁༦དང	-5025
▁༨དང	-5026
▁ཀིས	-5027
▁གཡམ	-5028
▁ཆ༡༣	-5029
▁ཆ༣༠	-5030
▁ཐང་	-5031
▁ཐེབ	-5032
▁ནིན	-5033
▁པརང	-5034
▁བརྣ	-5035
▁བོག	-5036
▁མ༤༥	-5037
▁མཐང	-5038
▁མི༥	-5039
▁ཚོ༢	-5040
▁ཚོལ	-5041
▁ཟོབ	-5042
▁ཡིལ	-5043
▁ཡེད	-5044
▁ཡེས	-5045
▁རྔོ	-5046
▁རྙི	-5047
▁རྡེ	-5048
▁རྭར	-5049
▁ལིམ	-5050
▁ལེས	-5051
▁ལོབ	-5052
▁ཤིར	-5053
▁སྦོ	-5054
▁སྨག	-5055
༠༠ཡིན	-5056
༡༠༠དང	-5057
༡༢ཟིན	-5058
༡༢ཡོད	-5059
༡༥ཉིན	-5060
༡༩ཡོད	-5061
༤༠ཡོད	-5062
༤༧ཡོད	-5063
༥༠ཟིན	-5064
༧༠ལྷག	-5065
མསོགས	-5066
འཕྲུལ	-5067
སྒྲུབ	-5068
▁༣༠ཡི	-5069
▁༩༠ཡན	-5070
▁ཁངགི	-5071
▁གདིང	-5072
▁གཞོམ	-5073
▁གསིག	-5074
▁གསུར	-5075
▁ཆའི༢	-5076
▁ཆའི༥	-5077
▁ཆུའུ	-5078
▁ཇོའོ	-5079
▁ཉིའི	-5080
▁ཏེའི	-5081
▁དངལོ	-5082
▁དཔོད	-5083
▁ནུའོ	-5084
▁པའིམ	-5085
▁པཡོད	-5086
▁པརནས	-5087
▁པོདང	-5088
▁ཕོའི	-5089
▁བཏུད	-5090
▁བཟང་	-5091
▁བཡིས	-5092
▁མྱུག	-5093
▁ཛེའི	-5094
▁ཝུའི	-5095
▁ཟླ༧པ	-5096
▁འཁུམ	-5097
▁འཆོལ	-5098
▁འཕོག	-5099
▁འབྲོ	-5100
▁རིང་	-5101
▁རུའོ	-5102
▁རྗེར	-5103
▁རྩིར	-5104
▁ལེ༡༣	-5105
▁སྤྲེ	-5106
▁སྨིར	-5107
༦༠༠ལྷག	-5108
▁༧༠ལྷག	-5109
▁ཁྲི༡༨	-5110
▁ཁྲི༡༩	-5111
▁ཁྲི༢༢	-5112
▁ཁྲི༤༩	-5113
▁གཏུབས	-5114
▁གྲངས༤	-5115
▁གྲིའི	-5116
▁ཆའི༡༠	-5117
▁ཐོགམི	-5118
▁དུབོད	-5119
▁ནི༡༩༨	-5120
▁ནིལོར	-5121
▁པའིབྱ	-5122
▁པོབཅས	-5123
▁ཕྱུར༠	-5124
▁བ༩པའི	-5125
▁བཅིབས	-5126
▁བརྔོས	-5127
▁ཚོད༡༡	-5128
▁ཟླ༡ནས	-5129
▁ཟླ༢པར	-5130
▁འགོདལ	-5131
▁འདིངས	-5132
▁འདུགཕ	-5133
▁རྨུའུ	-5134
▁རྩིགས	-5135
▁སོཞེས	-5136
▁སྐེམས	-5137
▁སྒོར༦	-5138
▁སྟེངས	-5139
▁སྡེབས	-5140
༤༠༠༠ལྷག	-5141
▁༧༠༠ལྷག	-5142
▁ཁྲིབཏང	-5143
▁ཁྲིཡོད	-5144
▁ཅིགབོད	-5145
▁ཆོསཞེས	-5146
▁ཐབསཞེས	-5147
▁དབྱིའི	-5148
▁དྲུགདང	-5149
▁ཕྱུར༣༥	-5150
▁ཕྱུར༤༥	-5151
▁བསྒོམས	-5152
▁ཡིགབོད	-5153
▁རྒྱུའོ	-5154
▁སྒོར༡༥	-5155
▁སྒོརནས	-5156
▁༡༩༥༡ལོར	-5157
▁ཁྲི༡ལྷག	-5158
▁གསུམཞབས	-5159
▁འཆརབཏོན	-5160
▁འདུགཉིན	-5161
▁སྒྲོགཉེ	-5162
▁༢༠༠༤ལོའི	-5163
▁༢༠༢༠ལོའི	-5164
▁པའིདམིགས	-5165
▁བསྡུསབོད	-5166
▁འགྱུརགྱི	-5167
▁གཞིདངསྲོལ	-5168
▁ལོ༢༠༡༠ལོའི	-5169
༨༦	-5170
༩པ	-5171
ཆང	-5172
ཇི	-5173
དྭ	-5174
ཚོ	-5175
ཝང	-5176
ྷོ	-5177
༥ཙམ	-5178
༧༨༩	-5179
༨༠ལ	-5180
༩༨ལ	-5181
༩བར	-5182
གསལ	-5183
གུས	-5184
གྲས	-5185
ཇུས	-5186
དྲན	-5187
ཕྲུ	-5188
བཟའ	-5189
མགོ	-5190
ཟུར	-5191
རེག	-5192
ཤོག	-5193
▁༦༩	-5194
▁༧༣	-5195
▁ཀག	-5196
▁ཀལ	-5197
▁པ༧	-5198
▁ཟུ	-5199
▁འི	-5200
▁ཧལ	-5201
༡༩༩༡	-5202
༢༠ཙམ	-5203
༣པའི	-5204
༤༠དང	-5205
༥༠བར	-5206
༥༠ཡི	-5207
༨འཕར	-5208
༩ཡིན	-5209
ཀྱའི	-5210
ཁྲོམ	-5211
གསུང	-5212
མཆོད	-5213
མྱུར	-5214
འབོད	-5215
རྙེད	-5216
ལུགས	-5217
སྐུལ	-5218
སྣོད	-5219
ཧུའུ	-5220
▁༡༩༣	-5221
▁༦གི	-5222
▁ཀིན	-5223
▁ཀུབ	-5224
▁ཀྱོ	-5225
▁ཆའམ	-5226
▁ཏོང	-5227
▁ཐིས	-5228
▁པ༡༧	-5229
▁པནི	-5230
▁བགད	-5231
▁བཅང	-5232
▁བྲས	-5233
▁མ༢༥	-5234
▁མི༤	-5235
▁ཝོར	-5236
▁འཛུ	-5237
▁རིད	-5238
▁རེམ	-5239
▁རྒལ	-5240
▁རྡར	-5241
▁ལོ༨	-5242
▁ལྦེ	-5243
▁སིད	-5244
▁ཧོན	-5245
▁ཧྲལ	-5246
༡༠༠ཡི	-5247
༡༢ཀྱི	-5248
༡༤དོན	-5249
༢༠༠ཙམ	-5250
༢༥ཉིན	-5251
༢༩ཉིན	-5252
༣༥ཡིན	-5253
༤༢ལོར	-5254
༦༠ཟིན	-5255
གསློབ	-5256
དབྱངས	-5257
བརྒྱད	-5258
འདིའི	-5259
རྒྱུས	-5260
▁༡༡གི	-5261
▁༡༦ཙམ	-5262
▁༡༩༤༩	-5263
▁༤༠ཙམ	-5264
▁༥༡༠༠	-5265
▁༥ཡོད	-5266
▁༧༠ཡན	-5267
▁༧གྱི	-5268
▁ཀོའི	-5269
▁ཁེགས	-5270
▁གཏོལ	-5271
▁གནང་	-5272
▁གསོབ	-5273
▁གོང་	-5274
▁གྲུས	-5275
▁ཐིམས	-5276
▁ཐོགད	-5277
▁དེབས	-5278
▁པལྷག	-5279
▁ཕིགས	-5280
▁ཕིའོ	-5281
▁བཀླག	-5282
▁བསྙད	-5283
▁བུབས	-5284
▁མཚང་	-5285
▁མེའུ	-5286
▁ཟེའུ	-5287
▁འགྲས	-5288
▁ཡོའུ	-5289
▁རྟའུ	-5290
▁ལོ༣༠	-5291
▁ལྷོར	-5292
▁ཤོགས	-5293
▁སེངྒ	-5294
▁སྐྱུ	-5295
▁སྒོག	-5296
▁སྦྲར	-5297
▁ཧུའི	-5298
བསྒྲགས	-5299
▁༡༡ཚེས	-5300
▁༡ཀྲུང	-5301
▁ཁུལ༧༤	-5302
▁ཁྱིའི	-5303
▁ཁྱེརས	-5304
▁ཁྲི༢༦	-5305
▁གདུངས	-5306
▁གཟིམས	-5307
▁ངོརིང	-5308
▁ཐབསདེ	-5309
▁ཐོགརང	-5310
▁ཐོགལོ	-5311
▁དཀྲོག	-5312
▁དེ༢༠༠	-5313
▁ནས༢༠༠	-5314
▁པའིཇོ	-5315
▁པརབོད	-5316
▁པོཟེར	-5317
▁བཅུདང	-5318
▁བརྒྱས	-5319
▁བསུའི	-5320
▁བསྐུམ	-5321
▁མྱོང་	-5322
▁ཞུཞེས	-5323
▁འཆིའི	-5324
▁འཇོགས	-5325
▁འཐུངས	-5326
▁འདུགན	-5327
▁འཛིངས	-5328
▁རྐྱོང	-5329
▁སྒྲགས	-5330
▁སྨི༤༥	-5331
▁སྲུངས	-5332
▁ཁྲི༡༥༠	-5333
▁གྲངས༡༠	-5334
▁གྲངས༡༢	-5335
▁ཆེནགྱི	-5336
▁ཏེསློབ	-5337
▁དབྱུགས	-5338
▁ཕྱུར༢༢	-5339
▁ཕྱུར༢༥	-5340
▁ཕྱུར༣༠	-5341
▁བསྲུབས	-5342
▁འགོདལོ	-5343
▁འདྲོངས	-5344
▁ཡིགཅེས	-5345
▁ལོ༡༩༨༠	-5346
▁སྐྱོང་	-5347
▁སྒྱུའི	-5348
▁༡༩༥༩ལོར	-5349
▁༡༩༧༨ལོར	-5350
▁༡༩༨༨ལོར	-5351
▁༡༩༩༢ལོར	-5352
▁༥༠༠༠ལྷག	-5353
▁གིསགྲོང	-5354
▁གིསརྒྱལ	-5355
▁གྲྭསློབ	-5356
▁ངོ༢༠རིང	-5357
▁དགོསཟེར	-5358
▁པའིདབུལ	-5359
▁པའིའཕེལ	-5360
▁ཕྱུར༣༠༠	-5361
▁བཞིའིལས	-5362
▁བའིཀྲུང	-5363
▁བརྒྱུགས	-5364
▁བསྒྲུགས	-5365
▁མཛོདཅེས	-5366
▁འདུགམིག	-5367
▁༡༩༨༩ལོའི	-5368
▁༡༩༩༠ལོའི	-5369
▁གཅིགརྒྱལ	-5370
▁ཕྱུརབཀོད	-5371
▁ཡིགདབྱིན	-5372
▁རབས༢༠པའི	-5373
▁སྐྱོངཞེས	-5374
▁སྒོར༣༠༠༠	-5375
▁ལོ༢༠༠༩ལོར	-5376
▁སྤྱོདསྤེལ	-5377
▁གིས༢༠༡༤ལོའི	-5378
ཀུ	-5379
ངག	-5380
ཉར	-5381
བལ	-5382
ཞྭ	-5383
སྲ	-5384
ཧི	-5385
ཨར	-5386
ྣེ	-5387
༡བར	-5388
༡ལས	-5389
༢༥ལ	-5390
༢ལས	-5391
༤༧ལ	-5392
༤བར	-5393
༥ཅན	-5394
༦༠ལ	-5395
༦བར	-5396
ཀྱང	-5397
ཁྲག	-5398
གསང	-5399
གྲྭ	-5400
ངའི	-5401
དཔར	-5402
དུང	-5403
བོན	-5404
བྱར	-5405
ཚོན	-5406
འཇམ	-5407
འདྲ	-5408
རོལ	-5409
རྨི	-5410
ལྟོ	-5411
སངས	-5412
སོང	-5413
སྔར	-5414
སྤོ	-5415
▁༤༤	-5416
▁༦༢	-5417
▁༧༤	-5418
▁༩༨	-5419
▁ཀམ	-5420
▁གག	-5421
▁གཆ	-5422
▁ཅལ	-5423
▁ཚས	-5424
▁ཚུ	-5425
▁ཛམ	-5426
▁འར	-5427
༠༠༠ལ	-5428
༡༠ལས	-5429
༡༣དང	-5430
༡༥ཡི	-5431
༡༧དང	-5432
༢༥ཙམ	-5433
༣བཅས	-5434
༤༠ཡི	-5435
༦༠ལས	-5436
༧༨ལོ	-5437
༧ལྷག	-5438
༨༠དང	-5439
ཁོངས	-5440
དཔོན	-5441
བསླབ	-5442
མཚོན	-5443
མིའི	-5444
རྒྱས	-5445
སྟོན	-5446
▁༠༨༩	-5447
▁༡༧༩	-5448
▁༡པོ	-5449
▁༢༨༠	-5450
▁༣༢༣	-5451
▁༥ཙམ	-5452
▁གཤར	-5453
▁གྲབ	-5454
▁ཆ༡༤	-5455
▁ཏུབ	-5456
▁དངར	-5457
▁དིལ	-5458
▁པ༡༥	-5459
▁པུའ	-5460
▁པོག	-5461
▁པོན	-5462
▁བཀན	-5463
▁བིན	-5464
▁བུབ	-5465
▁མ༡༦	-5466
▁མཁྱ	-5467
▁མང་	-5468
▁མཉྫ	-5469
▁མི༢	-5470
▁མེག	-5471
▁ཙའི	-5472
▁ཚད༧	-5473
▁ཚུང	-5474
▁འོམ	-5475
▁ཡོར	-5476
▁རྦུ	-5477
▁ལོ༦	-5478
▁ཤོམ	-5479
▁སྐན	-5480
▁སྒབ	-5481
▁ཧུད	-5482
▁ཧོལ	-5483
▁ཧྲུ	-5484
▁ཨེམ	-5485
༡༠༠ཙམ	-5486
༢༡ཡོད	-5487
༥༠༠ཡི	-5488
༥༠བཏང	-5489
༧༩ལོར	-5490
༩༨ཟིན	-5491
ངསོགས	-5492
འཕྲོད	-5493
འབྲུག	-5494
▁༡༠ཙམ	-5495
▁༡༢བར	-5496
▁༧ཚེས	-5497
▁ཁེའོ	-5498
▁ཁོའུ	-5499
▁ཁྱིས	-5500
▁ཁྲི༠	-5501
▁ཁྲོག	-5502
▁གཟེབ	-5503
▁གསིལ	-5504
▁དཀོར	-5505
▁དབུན	-5506
▁ནིའི	-5507
▁པཞིག	-5508
▁ཕུའི	-5509
▁ཕྲེད	-5510
▁ཕྲོམ	-5511
▁བཀྱི	-5512
▁བསྐྲ	-5513
▁བསླང	-5514
▁བུའམ	-5515
▁བྲེག	-5516
▁མཇིང	-5517
▁མི༡༥	-5518
▁མོའུ	-5519
▁མོའོ	-5520
▁ཚོའང	-5521
▁ཞུའུ	-5522
▁འཆུག	-5523
▁འབགས	-5524
▁འཛེར	-5525
▁ཡུངས	-5526
▁རྡོབ	-5527
▁རྨིན	-5528
▁རྩིང	-5529
▁ལོ༩༠	-5530
▁ལྔཡི	-5531
▁ལྕུག	-5532
▁སོང་	-5533
▁སྐོས	-5534
▁སྒྱེ	-5535
▁སྡིས	-5536
▁སྡུས	-5537
▁སྦྱི	-5538
▁སྨི༦	-5539
▁སླེབ	-5540
▁ཧོའུ	-5541
▁ཧྲིག	-5542
▁ཧྲུག	-5543
▁ཧྲོང	-5544
▁ཧྲོན	-5545
༡༠༠༠ཙམ	-5546
༡༦ལོའི	-5547
༢༠༡༤ལོ	-5548
༣༠༠ཡོད	-5549
༥༠༠ལྷག	-5550
▁༢༠རིང	-5551
▁༨༠ལྷག	-5552
▁ཀྱིསང	-5553
▁ཁྲི༤༦	-5554
▁ཁྲིདང	-5555
▁གཞུང་	-5556
▁གིསལས	-5557
▁གྲུའུ	-5558
▁ཆའི༡༤	-5559
▁ནསཞིང	-5560
▁པསབོད	-5561
▁བའིལས	-5562
▁ཞིགདང	-5563
▁འདྲོག	-5564
▁འཕྱིས	-5565
▁འོགརང	-5566
▁རྒྱུལ	-5567
▁ལེནྡྲ	-5568
▁ལྷུངས	-5569
▁སྐོགས	-5570
▁སྒོའང	-5571
▁སྒོར༧	-5572
▁སྒོརལ	-5573
▁སྟེང་	-5574
▁སྡོམས	-5575
༢༠༡༢ལོར	-5576
༢༠༡༥ལོར	-5577
བསྒྲུབས	-5578
▁༡༩༨༠ལོ	-5579
▁༡༩༩༧ལོ	-5580
▁༢༠༠༣ལོ	-5581
▁གཡགབོད	-5582
▁གྲངས༡༧	-5583
▁ཆག༡༩༤༩	-5584
▁ཐུབཟེར	-5585
▁ཐོགརྒྱ	-5586
▁དཀྱོགས	-5587
▁དགའཐོབ	-5588
▁དངཀྲུང	-5589
▁ནསཀྲུང	-5590
▁ནིལོའི	-5591
▁པདྨོའི	-5592
▁པུའུའི	-5593
▁ཕྱུར༡༨	-5594
▁ཕྱུར༢༨	-5595
▁ཕྱུར༨༠	-5596
▁བ༡༡པའི	-5597
▁བཅུགདེ	-5598
▁བརྡིབས	-5599
▁ཚེས༡ནས	-5600
▁ཚོ༡༠༠༠	-5601
▁འགོདདང	-5602
▁འགོདལག	-5603
▁འདུགགལ	-5604
▁འདུགཆུ	-5605
▁འདུགཔེ	-5606
▁འདུགཡང	-5607
▁འདུགརི	-5608
▁རུངཞེས	-5609
▁རྩེཞེས	-5610
▁ལོ༡༠ཡི	-5611
▁༡༣༠༠ལྷག	-5612
▁༡༩༨༩ལོར	-5613
▁༡༩༩༠ལོར	-5614
▁༡༩༩༥ལོར	-5615
▁༣༠༠༠ལྷག	-5616
▁༤༠༠༠ལྷག	-5617
▁༦༠༠༠ལྷག	-5618
▁ཁྲི༦ལྷག	-5619
▁ཁྲིབཀོད	-5620
▁ཆོགསློབ	-5621
▁བའིརྒྱལ	-5622
▁ཚེས༡༥བར	-5623
▁ཚོརགྲོང	-5624
▁འདུགདགེ	-5625
▁འདུགདེང	-5626
▁འདུགཞེས	-5627
▁༡༩༨༥ལོའི	-5628
▁ཕྱུར༢ལྷག	-5629
▁འདུགསྤྱི	-5630
▁སྤྱོདཅེས	-5631
▁ཁྲིམསདངོས	-5632
▁ངོ༡༣༠༠ལྷག	-5633
▁མཛོདསྒྲིག	-5634
▁རྫོངཆུསདང	-5635
▁ལོ༢༠༢༠ལོར	-5636
▁ཁྲི༡༠༠༠ལྷག	-5637
▁ཆག༡༩༤༩༡༩༩༡	-5638
▁ནི༢༠༡༤ལོའི	-5639
▁ལོ༢༠༠༩ལོའི	-5640
▁གྱི༢༠༡༤ལོའི	-5641
༤པ	-5642
༥༡	-5643
ཀོ	-5644
གཤ	-5645
ཅི	-5646
ཙན	-5647
ཚྭ	-5648
ཞན	-5649
ཤི	-5650
ཧྭ	-5651
༡༣ལ	-5652
༡༩༦	-5653
༢༢༧	-5654
༢༨ལ	-5655
༣༠༢	-5656
༤༤ལ	-5657
༥བར	-5658
༧པར	-5659
༧ལས	-5660
གཡང	-5661
གསན	-5662
ཅིང	-5663
ཆིང	-5664
དུན	-5665
དྲག	-5666
བབས	-5667
ཟངས	-5668
འུས	-5669
འོག	-5670
ལུག	-5671
ཤིག	-5672
ྒོར	-5673
▁༧པ	-5674
▁༨༩	-5675
▁༨པ	-5676
▁གྭ	-5677
▁ནལ	-5678
▁པ༣	-5679
▁ཛོ	-5680
▁ལྩ	-5681
▁ལྫ	-5682
▁ཨབ	-5683
༡༩དང	-5684
༢༠ལས	-5685
༢༡གི	-5686
༢བཅས	-5687
༣༣དང	-5688
༤ཡིན	-5689
༧༠ཙམ	-5690
༧བཏང	-5691
གནོད	-5692
གསོག	-5693
གྱུར	-5694
དཀོན	-5695
དབུས	-5696
དྲོད	-5697
བཅོས	-5698
འཇིག	-5699
འཇོན	-5700
རྐྱང	-5701
རྟེན	-5702
རྩེད	-5703
སྤུས	-5704
▁༡༠༥	-5705
▁༡༡༢	-5706
▁༡༢༣	-5707
▁༡༢༥	-5708
▁༡༦ལ	-5709
▁༢༡༡	-5710
▁༣ཙམ	-5711
▁༤ནས	-5712
▁༤བར	-5713
▁༥པར	-5714
▁༥ཡི	-5715
▁ཁའང	-5716
▁ཁྱེ	-5717
▁གཉྫ	-5718
▁གའོ	-5719
▁ཅིབ	-5720
▁ཅོར	-5721
▁ཆ༡༢	-5722
▁ཆ༤༠	-5723
▁ཐེས	-5724
▁ཐོམ	-5725
▁དཀུ	-5726
▁དམེ	-5727
▁དེན	-5728
▁དོལ	-5729
▁ན༢༠	-5730
▁པ༡༠	-5731
▁པལས	-5732
▁པིས	-5733
▁པུན	-5734
▁བཞའ	-5735
▁བོབ	-5736
▁མོམ	-5737
▁ཝའི	-5738
▁ཞིར	-5739
▁འགུ	-5740
▁རོར	-5741
▁རྡང	-5742
▁རྡབ	-5743
▁རླང	-5744
▁ལྦང	-5745
▁སྦེ	-5746
▁ཨེག	-5747
▁ཨོང	-5748
▁ཨོལ	-5749
༡༦འཕར	-5750
༡༦ལོར	-5751
༡༧གྱི	-5752
༢༠༠ནས	-5753
༢༣ཉིན	-5754
༤༥ཟིན	-5755
༤༥འཕར	-5756
༦༠ཡོད	-5757
དཀྱིལ	-5758
བསྐྱལ	-5759
སྐྱབས	-5760
སྒྲོལ	-5761
སྤྱིར	-5762
▁༡༥༠༠	-5763
▁༡༩༦༠	-5764
▁༣༠ནས	-5765
▁༣༠ཙམ	-5766
▁༧༤ཡི	-5767
▁ཁྲའེ	-5768
▁ཁྲིང	-5769
▁ཁྲིམ	-5770
▁ཁྲེས	-5771
▁གྲིལ	-5772
▁ངོ༣༠	-5773
▁ངོ༦༠	-5774
▁ཅེའི	-5775
▁ཆོགམ	-5776
▁ཏེའེ	-5777
▁དབང་	-5778
▁དབངས	-5779
▁དམུས	-5780
▁དོའི	-5781
▁དྲུས	-5782
▁ནི༢༠	-5783
▁པརདུ	-5784
▁བཅིང	-5785
▁བཏུམ	-5786
▁བརྫི	-5787
▁བསུར	-5788
▁བསྡམ	-5789
▁བྲུན	-5790
▁བླའི	-5791
▁བྷོས	-5792
▁མིའུ	-5793
▁མེའོ	-5794
▁མོནི	-5795
▁ཚད༩༨	-5796
▁ཚོ༡༥	-5797
▁ཝེའི	-5798
▁ཟླ༦པ	-5799
▁ཟླ༩བ	-5800
▁འགོང	-5801
▁འགྲེ	-5802
▁འཇོམ	-5803
▁འཐམས	-5804
▁འདམས	-5805
▁འདྲས	-5806
▁འཕུང	-5807
▁འོགད	-5808
▁ཡིགཧ	-5809
▁ཡིནཔ	-5810
▁རྐོང	-5811
▁ལཞེས	-5812
▁ལེ༢༥	-5813
▁ལྔདང	-5814
▁ཤིགས	-5815
▁སིའུ	-5816
▁སྲོས	-5817
༠༠༠བཏང	-5818
༠༠བསྡུ	-5819
༢༠༡༠ལོ	-5820
༢༠༡༡ལོ	-5821
བསྡོམས	-5822
མགྱོགས	-5823
▁༣༠ཡོད	-5824
▁ཀྲོའོ	-5825
▁གཉིསལ	-5826
▁གཞིདེ	-5827
▁གསུམས	-5828
▁གིསམི	-5829
▁གྲྭའམ	-5830
▁ཆའི༤༠	-5831
▁ཆེནདེ	-5832
▁ཐབསདང	-5833
▁ཐོགཏང	-5834
▁ཐོགལྷ	-5835
▁དམཞེས	-5836
▁པསགུས	-5837
▁ཕྱུར༩	-5838
▁བཞིཡོ	-5839
▁བརྩིག	-5840
▁བསྡུད	-5841
▁མིཞེས	-5842
▁མོབོད	-5843
▁འགོགས	-5844
▁འཕྱུག	-5845
▁ཡིགལག	-5846
▁རྒྱོང	-5847
▁རྟེའུ	-5848
▁རྩེགས	-5849
▁རློམས	-5850
▁ལཀྲུང	-5851
▁སྒོར༨	-5852
▁སྒྲུན	-5853
▁སྤྱིས	-5854
▁སྲུང་	-5855
▁༡༢༣༤༥༦	-5856
▁༡༩༦༢ལོ	-5857
▁ཁུལགྱི	-5858
▁གཅིགདེ	-5859
▁གཉིསདང	-5860
▁གཞུངགི	-5861
▁གིརྒྱལ	-5862
▁གྱིསལོ	-5863
▁གྲངས༢༢	-5864
▁ཆེནཞེས	-5865
▁ཆོགབོད	-5866
▁ཆོགའོན	-5867
▁པའིགནས	-5868
▁པའིབླང	-5869
▁པརགྱིས	-5870
▁ཕྱུར༤༦	-5871
▁བསྐྱིས	-5872
▁མཛོདདང	-5873
▁ཚད༡༠༠ལ	-5874
▁ཚོའིཨུ	-5875
▁ཟླ༡༠བར	-5876
▁འགྲེངས	-5877
▁འདུགཉི	-5878
▁འདུགལས	-5879
▁འདྲེའི	-5880
▁རིགརིག	-5881
▁ལུགསདང	-5882
▁༡༩༧༧ལོར	-5883
▁༡༩༨༦ལོར	-5884
▁༡༩༨༧ལོར	-5885
▁༣༦༠༠ལྷག	-5886
▁གཅིགབོད	-5887
▁གླིངཚོད	-5888
▁ཆེནགྲོང	-5889
▁ཆོགརྒྱལ	-5890
▁དངཕྱོགས	-5891
▁པའིསྐབས	-5892
▁ཕྱུགཤེས	-5893
▁བཞིབརྟན	-5894
▁འཇུགབོད	-5895
▁འདུགདཔེ	-5896
▁འདུགདེས	-5897
▁ལུགསཞེས	-5898
▁སྒོར༥༠༠	-5899
▁སྟོནགྱི	-5900
▁༢༠༠༠ལོའི	-5901
▁བརྒྱདཀྱི	-5902
▁འདུགདཔེར	-5903
▁འདུགདཔྱད	-5904
▁འདུགསྒོམ	-5905
▁སྒྲོགམཚོ	-5906
▁དྲུགའཕྲིན	-5907
▁ནི༢༠༡༡ལོའི	-5908
▁ཟླ༢ཚེས༤ཉིན	-5909
▁ལྗོངསའཛུགས	-5910
▁པའི༢༠༡༤ལོའི	-5911
༨༡	-5912
གར	-5913
ངང	-5914
ཏྤ	-5915
ཐེ	-5916
ཞུ	-5917
ཟི	-5918
ཡེ	-5919
ལང	-5920
སར	-5921
ཨན	-5922
ྔོ	-5923
༡༤ལ	-5924
༡༦ལ	-5925
༡༩༠	-5926
༢༡༢	-5927
༢༤ལ	-5928
༣༠ལ	-5929
༣༡ལ	-5930
༣༢༠	-5931
༦༥ལ	-5932
༧༤ལ	-5933
༩༥ལ	-5934
ཀརྨ	-5935
ཀླུ	-5936
ཁུང	-5937
གཟི	-5938
གོམ	-5939
ཅིན	-5940
ཆེན	-5941
ཏྤལ	-5942
ཐོས	-5943
བཏབ	-5944
བལྟ	-5945
བུམ	-5946
བུལ	-5947
མིན	-5948
འཆད	-5949
འཆམ	-5950
འཇུ	-5951
འབར	-5952
རེར	-5953
རྨོ	-5954
ལགས	-5955
ལེན	-5956
སྐྲ	-5957
ཧྲང	-5958
▁༤༡	-5959
▁༥༤	-5960
▁༦༧	-5961
▁༦༨	-5962
▁ཏས	-5963
▁ཙར	-5964
▁ཟལ	-5965
▁རཀ	-5966
▁ཤབ	-5967
༡༠ནས	-5968
༡༥བར	-5969
༢༠༠ལ	-5970
༢༣༠༠	-5971
༦གིས	-5972
༦བཅས	-5973
༧༠དང	-5974
༨༠ནས	-5975
༩ཡིས	-5976
ཀྲམས	-5977
གཅེས	-5978
གཉེན	-5979
གཙོད	-5980
གཡུང	-5981
གླེང	-5982
དགོང	-5983
ནསབར	-5984
ཕྱིས	-5985
བྲིས	-5986
མཐོང	-5987
མདུན	-5988
འཐུས	-5989
ལུའུ	-5990
ལྐོག	-5991
སྤྱད	-5992
སྲོག	-5993
▁༡༠༨	-5994
▁༡༠ལ	-5995
▁༡༡༠	-5996
▁༡༡༩	-5997
▁༡༢ལ	-5998
▁༡༨༨	-5999
▁༢༢༠	-6000
▁༢༥༠	-6001
▁༥༠༠	-6002
▁༦ནས	-6003
▁༦ཙམ	-6004
▁ཁང༦	-6005
▁ཁེས	-6006
▁གཉལ	-6007
▁གཟེ	-6008
▁གེག	-6009
▁གྷན	-6010
▁ངྷི	-6011
▁ཇིར	-6012
▁ཇིས	-6013
▁ཇུན	-6014
▁ཐའི	-6015
▁ཐེལ	-6016
▁དྲལ	-6017
▁དྷོ	-6018
▁ན༡༨	-6019
▁བདས	-6020
▁བཟད	-6021
▁བརལ	-6022
▁བླར	-6023
▁མདར	-6024
▁ཙུའ	-6025
▁ཚད༩	-6026
▁ཚདལ	-6027
▁ཞའི	-6028
▁ཞུག	-6029
▁ཟའོ	-6030
▁འཆན	-6031
▁འབལ	-6032
▁རའེ	-6033
▁རུག	-6034
▁རྒོ	-6035
▁རྫམ	-6036
▁རླམ	-6037
▁ལནད	-6038
▁ལུར	-6039
▁ལེད	-6040
▁ལེལ	-6041
▁ལོད	-6042
▁ཤུབ	-6043
▁སུད	-6044
▁སྲེ	-6045
▁སླས	-6046
▁སླུ	-6047
▁ཨའི	-6048
༠༠༠ལས	-6049
༡༠ཉིན	-6050
༡༡པའི	-6051
༡༢རིང	-6052
༡༣གྱི	-6053
༡༣ལོར	-6054
༡༨ལོར	-6055
༢༧ཡོད	-6056
༢༨ཡོད	-6057
༣༥ཟིན	-6058
༣༦ཟིན	-6059
༣༨ཡོད	-6060
༦༤ཡོད	-6061
༨༠ཡོད	-6062
༨༨འཕར	-6063
༩༠ལོར	-6064
གསྤྱི	-6065
གྲོགས	-6066
བཞུགས	-6067
བཞེངས	-6068
འཇིགས	-6069
རྫོགས	-6070
སྐྱིད	-6071
སྒྲོག	-6072
སྟོབས	-6073
ུསོགས	-6074
▁༡༤བར	-6075
▁༡༨དང	-6076
▁༢༤བར	-6077
▁༢ཚེས	-6078
▁༣ལྷག	-6079
▁༤༣༠༠	-6080
▁༨༠ཙམ	-6081
▁༨༠ཡན	-6082
▁༨ཀྱི	-6083
▁༨ཡོད	-6084
▁༩ཡོད	-6085
▁ཀོའུ	-6086
▁ཀླུད	-6087
▁ཁགམི	-6088
▁ཁྲུམ	-6089
▁ཁྲོང	-6090
▁གཆིག	-6091
▁གཏོས	-6092
▁གཙིག	-6093
▁གཟུག	-6094
▁གཟེད	-6095
▁གིའི	-6096
▁གིསས	-6097
▁གྲའུ	-6098
▁ཅནདང	-6099
▁ཆའི༧	-6100
▁ཉིན༣	-6101
▁དགྱེ	-6102
▁དབུག	-6103
▁ནིའུ	-6104
▁པདྨེ	-6105
▁པབོད	-6106
▁པའིས	-6107
▁པཡིས	-6108
▁པསལོ	-6109
▁པིའོ	-6110
▁བཙུག	-6111
▁བའིས	-6112
▁བརྔས	-6113
▁བསེལ	-6114
▁བསྲོ	-6115
▁མཆོན	-6116
▁མཉྫུ	-6117
▁མལྷག	-6118
▁མི༡༡	-6119
▁མོཐང	-6120
▁ཙནྡན	-6121
▁ཚོ༡༡	-6122
▁ཚོད༩	-6123
▁འཆམས	-6124
▁འཐེབ	-6125
▁འཐོན	-6126
▁འདོག	-6127
▁འདྲུ	-6128
▁འབོག	-6129
▁འབོབ	-6130
▁འབྲེ	-6131
▁རྒྱམ	-6132
▁རྩེབ	-6133
▁རྫའི	-6134
▁རྫེས	-6135
▁རླིག	-6136
▁ལོ༦༥	-6137
▁ལོནས	-6138
▁ལྔའམ	-6139
▁ལྷོང	-6140
▁ཤིའི	-6141
▁སྐུས	-6142
▁སྙུན	-6143
▁སྟེལ	-6144
▁སྟོར	-6145
▁སྣའང	-6146
▁སྣོམ	-6147
▁སྦེད	-6148
▁སྨི༧	-6149
▁སྨིག	-6150
▁ཧེའི	-6151
▁ཧྲེས	-6152
▁ཨུའུ	-6153
༢༠༠ཟིན	-6154
༥༠ལོའི	-6155
སྤྱིའི	-6156
▁༡༢བའི	-6157
▁༡༨ཀྱི	-6158
▁༡༨ཡོད	-6159
▁ཁྲི༣༤	-6160
▁ཁྲི༦༠	-6161
▁ཁྲི༧༨	-6162
▁ཁྲོའུ	-6163
▁གཞིལག	-6164
▁ཅིགརང	-6165
▁ཆའི༣༣	-6166
▁ཆེཞེས	-6167
▁ཆོགརང	-6168
▁ཐབསཔར	-6169
▁ཐོཞེས	-6170
▁དཔོགས	-6171
▁ནསའགན	-6172
▁པདངོས	-6173
▁པའིཚད	-6174
▁པའིལྷ	-6175
▁བ༥བའི	-6176
▁བཙེམས	-6177
▁བཞིའམ	-6178
▁བཞིཡི	-6179
▁བཟློས	-6180
▁བརྒྱང	-6181
▁བརྔོན	-6182
▁བསྐྲད	-6183
▁བསྔོག	-6184
▁བསྙོར	-6185
▁ཚད༡༠༠	-6186
▁ཚེས༡༤	-6187
▁འགོངས	-6188
▁འགྱོག	-6189
▁འཆརདང	-6190
▁འཇོའི	-6191
▁འཐུའི	-6192
▁འཕོངས	-6193
▁འབྲུར	-6194
▁འཚུགས	-6195
▁རབས༡༧	-6196
▁རབས༡༩	-6197
▁རྒྱུང	-6198
▁རྡོདང	-6199
▁ལམགྱི	-6200
▁ལོ༣ནས	-6201
▁ལྫོངས	-6202
▁ལྷནཏང	-6203
▁སྙེམས	-6204
༢༠༡༠ལོར	-6205
༧༨༩ཀྲུང	-6206
▁༠༨༩༡༦༨	-6207
▁༡༩༩༡ལོ	-6208
▁༡༩༩༣ལོ	-6209
▁༢༠༡༦ལོ	-6210
▁ཀྱིབོད	-6211
▁ཀྱིཟིན	-6212
▁གཅིགམི	-6213
▁གནསཞེས	-6214
▁གཞསཞེས	-6215
▁གྲངས༡༣	-6216
▁གྲངས༢༠	-6217
▁གྲྭབོད	-6218
▁ཐབསཚོད	-6219
▁དངརྒྱལ	-6220
▁པའིརིག	-6221
▁པའིརྒྱ	-6222
▁ཕྱུར༤༠	-6223
▁བཡིསཀུ	-6224
▁མོསོགས	-6225
▁ཚོད༩དང	-6226
▁ཞུརགསན	-6227
▁འགྱུའི	-6228
▁འཇུགགི	-6229
▁འདུགཀྲ	-6230
▁འདུགངས	-6231
▁ཡིགདོན	-6232
▁ཡིནཅེས	-6233
▁རིགབོད	-6234
▁རྒྱུདང	-6235
▁རྡལགྱི	-6236
▁ལྡནཞེས	-6237
▁ལྡབའཕར	-6238
▁ལྷནབཅའ	-6239
▁སྐྱེངས	-6240
▁སྐྱེའི	-6241
▁སྒོར༡༤	-6242
▁སྒོར༢༥	-6243
▁སྒོར༢༧	-6244
▁སྒོར༥༠	-6245
▁༡༩༥༠ལོར	-6246
▁༡༩༥༦ལོར	-6247
▁༢༥༠༠ལྷག	-6248
▁༤༧༠༠ལྷག	-6249
▁ཀྱིཀྲུང	-6250
▁ཁྲི༧ལྷག	-6251
▁གཅིགབཅས	-6252
▁གཉིསཔའི	-6253
▁གཏོངབཅས	-6254
▁གཏོདཀྱི	-6255
▁གནསགྲོང	-6256
▁གཞིསོགས	-6257
▁ངོ༢༠ལྷག	-6258
▁ཐོགསློབ	-6259
▁ནསསྤྱོད	-6260
▁བའིསློབ	-6261
▁ཚེས༡༠ནས	-6262
▁ཟླ༡༢བའི	-6263
▁འདུགཆེད	-6264
▁འདུགཞིང	-6265
▁འདུགཞིབ	-6266
▁འདུགཤིན	-6267
▁འདུགཤེས	-6268
▁འོགསློབ	-6269
▁༡༩༥༩ལོའི	-6270
▁༡༩༨༢ལོའི	-6271
▁༡༩༩༢ལོའི	-6272
▁འགོདསོགས	-6273
▁འདུགགྲོང	-6274
▁འདུགདབྱར	-6275
▁འདུགསྔོན	-6276
▁འབྱོརགྱི	-6277
▁རབས༩༠བའི	-6278
▁རྒྱུདཀྱི	-6279
▁ལྔའིབྱེད	-6280
▁ཁྲི༡༥༠ལྷག	-6281
▁འདུགའབྲེལ	-6282
▁འདུགསྤྱིར	-6283
▁རྫོངཆུསགི	-6284
▁གིས༢༠༡༡ལོའི	-6285
▁༡༢༣༤༥༦༧༨༩ཀྲུང	-6286
༧༡	-6287
བག	-6288
བང	-6289
ཚལ	-6290
ཞོ	-6291
ལྡ	-6292
ྟར	-6293
ྣང	-6294
ྣམ	-6295
ྨྱ	-6296
༡༡༣	-6297
༡༢༥	-6298
༡༤༤	-6299
༡༤༥	-6300
༡༥ལ	-6301
༡༧༨	-6302
༡༧༩	-6303
༡༨༣	-6304
༡༩༧	-6305
༢༡༠	-6306
༢༢༨	-6307
༣༢༨	-6308
༣༣༥	-6309
༣༥ལ	-6310
༣༧ལ	-6311
༣བར	-6312
༥༤ལ	-6313
༦༨ལ	-6314
༧༠༠	-6315
༧༥ལ	-6316
ཁེར	-6317
གྲོ	-6318
ཆོད	-6319
ཉེས	-6320
ཉོས	-6321
ཏུང	-6322
ཏུན	-6323
དགྲ	-6324
དོར	-6325
ནསལ	-6326
པདྨ	-6327
པའོ	-6328
ཕུང	-6329
ཕུན	-6330
བསྣ	-6331
བྱེ	-6332
མཁར	-6333
མཆན	-6334
མཐར	-6335
མེས	-6336
ཛེས	-6337
འདམ	-6338
འུར	-6339
རོང	-6340
རྩེ	-6341
ལྷན	-6342
སྔོ	-6343
ཧུར	-6344
ཨེད	-6345
ྕགས	-6346
ྗེས	-6347
ྡྷུ	-6348
ྱིང	-6349
▁༣ལ	-6350
▁༦༡	-6351
▁༧༧	-6352
▁༨༤	-6353
▁༩༦	-6354
▁༩༩	-6355
▁༩པ	-6356
▁ཇལ	-6357
▁ཐས	-6358
▁པ༢	-6359
▁པ༤	-6360
▁བ༩	-6361
▁ཛྷ	-6362
▁ཟར	-6363
༡༥༠༠	-6364
༡༥ལས	-6365
༡གིས	-6366
༢༠ལོ	-6367
༢༡ནས	-6368
༢༣དང	-6369
༢༤དང	-6370
༣༠དང	-6371
༣༡དང	-6372
༤༥དང	-6373
༤༧དང	-6374
༤བཅས	-6375
༥བཅས	-6376
༥རིམ	-6377
༩༠དང	-6378
༩༠ཡི	-6379
ཁྲུང	-6380
གསོན	-6381
གྱོད	-6382
ཐུགས	-6383
བདེན	-6384
མངགས	-6385
འཇོག	-6386
འབྲུ	-6387
རྗོད	-6388
སྟེར	-6389
སྟོང	-6390
སྣུམ	-6391
སྤྲོ	-6392
སྦྲང	-6393
ཧྲའོ	-6394
ྐྱིད	-6395
▁༡༡༤	-6396
▁༡༡༥	-6397
▁༡༣༦	-6398
▁༡༣ལ	-6399
▁༡༦༠	-6400
▁༡ཙམ	-6401
▁༢དང	-6402
▁༣༡༨	-6403
▁༤ཡི	-6404
▁༨ཙམ	-6405
▁༩པར	-6406
▁ཀིར	-6407
▁ཁག༥	-6408
▁ཁབས	-6409
▁གཅད	-6410
▁གཙབ	-6411
▁གཞའ	-6412
▁གཤོ	-6413
▁གསད	-6414
▁གོབ	-6415
▁གྱད	-6416
▁གླན	-6417
▁གྷོ	-6418
▁ངངས	-6419
▁ངུས	-6420
▁ངོ་	-6421
▁ཅོལ	-6422
▁ཆ༡༠	-6423
▁ཆ༢༦	-6424
▁ཏུག	-6425
▁ཏུད	-6426
▁ཏྲེ	-6427
▁དགབ	-6428
▁ནསས	-6429
▁ནོལ	-6430
▁པ༡༦	-6431
▁པ༣༣	-6432
▁པྲི	-6433
▁བདོ	-6434
▁བཡི	-6435
▁བཤག	-6436
▁བསྭ	-6437
▁བྷར	-6438
▁མ༢༠	-6439
▁མདས	-6440
▁མཛས	-6441
▁མུའ	-6442
▁ཚོ༤	-6443
▁ཛིལ	-6444
▁ཝུད	-6445
▁ཞོས	-6446
▁ཟིར	-6447
▁ཟླཔ	-6448
▁ཡོབ	-6449
▁རྟས	-6450
▁རྣང	-6451
▁ལེ༣	-6452
▁ལྔལ	-6453
▁ལྡག	-6454
▁ཤུས	-6455
▁སའམ	-6456
▁སྤས	-6457
▁སློ	-6458
༡༠པའི	-6459
༡༡ཉིན	-6460
༡༦ཉིན	-6461
༡༦ཡོད	-6462
༢༠ཟིན	-6463
༢༡འཕར	-6464
༢༢ཉིན	-6465
༢༤ཡོད	-6466
༢༥ཟིན	-6467
༢༧པའི	-6468
༢༧བཏང	-6469
༢༧ལོར	-6470
༢༨ཟིན	-6471
༣༠བཏང	-6472
༣༣ཟིན	-6473
༣༨ཟིན	-6474
༣གྱིས	-6475
༤༩ཟིན	-6476
༥༠ཡིན	-6477
༦མངོན	-6478
༧༣ལོར	-6479
༧༥བཏང	-6480
༨༠ཟིན	-6481
༩༠ཡིན	-6482
༩༥ཟིན	-6483
༩༨ཡོད	-6484
ཀྲུའུ	-6485
གཟེངས	-6486
ཕྱུགས	-6487
མགྲོན	-6488
འདེགས	-6489
རྐྱེན	-6490
སྒྲུང	-6491
▁༡༠ཡན	-6492
▁༡༢༡༢	-6493
▁༡༢དང	-6494
▁༡༢ནས	-6495
▁༡༢ཙམ	-6496
▁༡༧ནས	-6497
▁༡༩༣༣	-6498
▁༡༩༤༥	-6499
▁༢༥དང	-6500
▁༢༥ཙམ	-6501
▁༢བོད	-6502
▁༣གྱི	-6503
▁༥༠ཙམ	-6504
▁ཀེའུ	-6505
▁ཀྱུར	-6506
▁ཀྲའེ	-6507
▁ཁང༡༠	-6508
▁ཁངདང	-6509
▁ཁབམི	-6510
▁གནའི	-6511
▁གབོད	-6512
▁གཞིབ	-6513
▁གཞེན	-6514
▁གཡུས	-6515
▁གཡེལ	-6516
▁གཤིག	-6517
▁གྲེན	-6518
▁ངོ༡༤	-6519
▁ཆའཕར	-6520
▁ཆའི༤	-6521
▁ཆོངས	-6522
▁ཉོའུ	-6523
▁ཏོའོ	-6524
▁དཀའི	-6525
▁དིའི	-6526
▁དུའོ	-6527
▁དྲིང	-6528
▁པདྨས	-6529
▁པའིཐ	-6530
▁བ༥པར	-6531
▁བཀུམ	-6532
▁བཅོག	-6533
▁བདེས	-6534
▁བཙགས	-6535
▁བཞིལ	-6536
▁བརྔོ	-6537
▁བརྩད	-6538
▁བལྟར	-6539
▁བསྣད	-6540
▁བུའུ	-6541
▁བྲའི	-6542
▁མ༡༢༠	-6543
▁མཡོད	-6544
▁མིའང	-6545
▁མོཡི	-6546
▁ཙོའི	-6547
▁ཚོ༢༠	-6548
▁ཟེའི	-6549
▁ཟླ༩པ	-6550
▁འཐུམ	-6551
▁འདེག	-6552
▁འབབས	-6553
▁ཡེའུ	-6554
▁རུའང	-6555
▁རྨུག	-6556
▁རྨེག	-6557
▁རྩྭར	-6558
▁ལཟེར	-6559
▁ལིངས	-6560
▁ལེ༢༠	-6561
▁ལོའུ	-6562
▁ལོཡི	-6563
▁ལྕུམ	-6564
▁ལྟོང	-6565
▁ལྷེན	-6566
▁ལྷེབ	-6567
▁སྔུན	-6568
▁སྡིང	-6569
▁སྣང་	-6570
▁སྣུབ	-6571
▁སྤུག	-6572
▁སྤུང	-6573
▁སྦིར	-6574
▁སྦུར	-6575
▁སྦྲེ	-6576
▁སླའོ	-6577
▁ཧེའུ	-6578
༢༠༠༠ཙམ	-6579
༢༠༡༥ལོ	-6580
༦༠བསྡུ	-6581
༨༩ལོའི	-6582
ནས༡༢༢༧	-6583
འཁྲུངས	-6584
▁༠༠༦ཙམ	-6585
▁༡༠༠ཙམ	-6586
▁༢༠༠ཙམ	-6587
▁༤༥ཟིན	-6588
▁༨༠༠ཙམ	-6589
▁ཀླུབས	-6590
▁ཁགབོད	-6591
▁ཁུལདུ	-6592
▁ཁྲི༤༤	-6593
▁ཁྲིགས	-6594
▁གཅིགག	-6595
▁གཅུགས	-6596
▁གཞིནི	-6597
▁གཟེགས	-6598
▁གིབོད	-6599
▁གིསཏང	-6600
▁གྲངས༦	-6601
▁གྲོའི	-6602
▁གྲྭའང	-6603
▁ཆའི༡༥	-6604
▁ཆོགལོ	-6605
▁ཐབསལག	-6606
▁ཐེངས༣	-6607
▁ཐོགལས	-6608
▁དགའདང	-6609
▁དགའནི	-6610
▁དགེའོ	-6611
▁དབངམི	-6612
▁ནསསྐད	-6613
▁ནོཞེས	-6614
▁པབྱེད	-6615
▁བཞིལས	-6616
▁བཤདལས	-6617
▁བསུབས	-6618
▁བསྐམས	-6619
▁བསྐུས	-6620
▁བསྟོན	-6621
▁བྱོའི	-6622
▁མཁྱུད	-6623
▁མེདདང	-6624
▁ཞིགདེ	-6625
▁འགེངས	-6626
▁འགྲོན	-6627
▁འཆརཔར	-6628
▁འདུགཆ	-6629
▁འདུགཔ	-6630
▁འདུགཡ	-6631
▁འདྲའོ	-6632
▁འདྲོང	-6633
▁འོགམི	-6634
▁ཡིགནི	-6635
▁ཡིགལས	-6636
▁རབསཔར	-6637
▁རྒུའི	-6638
▁རྒྱའམ	-6639
▁རྒྱུབ	-6640
▁རྡལདང	-6641
▁རྡུའི	-6642
▁རྫིགས	-6643
▁རྫིའི	-6644
▁རྫོང་	-6645
▁ལམ༣༡༨	-6646
▁ལོ༡༩༧	-6647
▁ལོརིང	-6648
▁ལྕིབས	-6649
▁ལྕེབས	-6650
▁ལྷིང་	-6651
▁སེངྒེ	-6652
▁སྐོངས	-6653
▁སྒོར༤	-6654
▁སྒོར༥	-6655
▁སྒྱུག	-6656
▁སྣུབས	-6657
▁སྨྱུང	-6658
▁ཨུཏྤལ	-6659
༢༠༠༦ལོར	-6660
༦༠༠༠ལྷག	-6661
▁༡༩༨༨ལོ	-6662
▁༢༠༠༠ཙམ	-6663
▁༢༠༡༥ལོ	-6664
▁༢༠འཁོར	-6665
▁༣༡༨ཀྱི	-6666
▁༤༠༠༠ཡན	-6667
▁༤༠༠ལྷག	-6668
▁ཀྱིཞིང	-6669
▁ཀྱིརིམ	-6670
▁ཁགསློབ	-6671
▁ཁངགཉེར	-6672
▁གཉིསལག	-6673
▁གཏམཞེས	-6674
▁གིས༢༠༠	-6675
▁གིསློབ	-6676
▁གྱིབོད	-6677
▁ཆོགགཞན	-6678
▁ཐབསགཤམ	-6679
▁དཀྲོགས	-6680
▁དུཀྲུང	-6681
▁དེབཅུང	-6682
▁ནིཀྲུང	-6683
▁པའིཆེད	-6684
▁པའིབསམ	-6685
▁པའིའདུ	-6686
▁པའིསྨན	-6687
▁པོའཁྲབ	-6688
▁ཕྱུར༢༩	-6689
▁ཕྱུར༣༨	-6690
▁ཕྱུར༤༤	-6691
▁བཙནགྱི	-6692
▁བའིམཚན	-6693
▁བརྒྱངས	-6694
▁བསྐུམས	-6695
▁བསྐྱོར	-6696
▁མེདཟེར	-6697
▁ཞིགཡིན	-6698
▁འཁོར༦༠	-6699
▁འགྱུརལ	-6700
▁འཆརགྱི	-6701
▁འཇུགལས	-6702
▁འདུགནམ	-6703
▁འདུགསྤ	-6704
▁འདྲཞེས	-6705
▁འབྱུང་	-6706
▁ཡིགབཅས	-6707
▁ཡིགཚོད	-6708
▁ཡིགརྒྱ	-6709
▁རབསཔའི	-6710
▁རིགལུས	-6711
▁རྒནཞེས	-6712
▁ལོ༢༠༠༠	-6713
▁ཤེསཞེས	-6714
▁སྒོར༡༦	-6715
▁སྒོརདང	-6716
▁ཨརགསུམ	-6717
▁༡༩༦༡ལོར	-6718
▁༡༩༧༥ལོར	-6719
▁༡༩༨༢ལོར	-6720
▁༡༩༨༣ལོར	-6721
▁ཁྲི༡༠ཙམ	-6722
▁ཁྲི༤ལྷག	-6723
▁གཅིགཡུལ	-6724
▁ཅིགསློབ	-6725
▁ཐོགསྤྱི	-6726
▁པའིམཛུབ	-6727
▁ཕྱུར༡༢༠	-6728
▁མ༡༠སྣོན	-6729
▁ཚད༧༡ཡིན	-6730
▁ཚེས༡༢བར	-6731
▁ཚོད༡༠དང	-6732
▁འགོདཀྱི	-6733
▁འཆརསོགས	-6734
▁འཇུགཅེས	-6735
▁འདུགཁྱི	-6736
▁འདུགགོང	-6737
▁འདུགབསམ	-6738
▁འདུགལུས	-6739
▁འདུགཤིང	-6740
▁རིགདམངས	-6741
▁རྡལགྲོང	-6742
▁རྫསརྣམས	-6743
▁༡༩༨༨ལོའི	-6744
▁༡༩༩༧ལོའི	-6745
▁ཀྱིསམངོན	-6746
▁ཁྱེརབདུན	-6747
▁ཁྲི༣༠ལྷག	-6748
▁གྱིསསློབ	-6749
▁གྲངས༡༠༠༠	-6750
▁གྲངས༦༠དང	-6751
▁ཚད༡༠༠ཟིན	-6752
▁འགོདཁྲོད	-6753
▁འགྱུརཞེས	-6754
▁འདུགབསྟན	-6755
▁འདུགསྐབས	-6756
▁འཕྲིནདུད	-6757
▁འབྲེལགྱི	-6758
▁འཛིནའདིར	-6759
▁འོགལྗོངས	-6760
▁ལོ༢༠༡༢ལོ	-6761
▁སྤྱོདཀྱི	-6762
▁ཆོགརྒྱུགས	-6763
▁མགྲིནཀྲུང	-6764
▁ནས༢༠༡༢ལོའི	-6765
▁རྫོངཆུསརིམ	-6766
▁ཀྱི༢༠༡༤ལོའི	-6767
▁ཟླ༡ཚེས༢༧ཉིན	-6768
▁ཟླ༤ཚེས༢༨ཉིན	-6769
▁ཟླ༡༢ཚེས༣༡ཉིན	-6770
▁འདུག༢༠༡༣ལོའི	-6771
ཅེ	-6772
ཆར	-6773
ཉྫ	-6774
ཐར	-6775
པལ	-6776
ཕལ	-6777
ཕུ	-6778
བམ	-6779
བྷ	-6780
ཙང	-6781
ཙོ	-6782
ཚི	-6783
རོ	-6784
སམ	-6785
ྡི	-6786
ྨད	-6787
ླད	-6788
༢༣༠	-6789
༢༣ལ	-6790
༢༤༢	-6791
༢༦༤	-6792
༢༧༠	-6793
༢བར	-6794
༣༡༩	-6795
༣༢ལ	-6796
༣༤༤	-6797
༣༨ལ	-6798
༤༠ལ	-6799
༤༦ལ	-6800
༥ལས	-6801
༦པར	-6802
༨ཙམ	-6803
༩༡༨	-6804
གོས	-6805
གློ	-6806
ཆོག	-6807
ཐེན	-6808
དབར	-6809
དམུ	-6810
དུག	-6811
དྲེ	-6812
ཕོག	-6813
བརླ	-6814
བསྟ	-6815
བུས	-6816
བེད	-6817
མདའ	-6818
ཚུལ	-6819
ཞུང	-6820
འབད	-6821
འཛད	-6822
འུན	-6823
རུས	-6824
རྩམ	-6825
རྫས	-6826
ཤུལ	-6827
ཧྲན	-6828
ུརྱ	-6829
ོདེ	-6830
ྒེར	-6831
ྙོག	-6832
ྟོན	-6833
ྦྲང	-6834
ྨྱན	-6835
ློག	-6836
▁༤ལ	-6837
▁༥༡	-6838
▁༥༦	-6839
▁༥༧	-6840
▁༥༨	-6841
▁༥༩	-6842
▁༥ལ	-6843
▁༧༩	-6844
▁༨༧	-6845
▁ཆ༩	-6846
▁ཏམ	-6847
▁རད	-6848
▁ལྱ	-6849
▁ཧས	-6850
༠༠ཡས	-6851
༡༠རུ	-6852
༡༡༡༧	-6853
༡༢ཙམ	-6854
༡༥ནས	-6855
༡བཏང	-6856
༡སྣེ	-6857
༢༠ཡན	-6858
༢༡དང	-6859
༣༠ལས	-6860
༣༤དང	-6861
༣༧དང	-6862
༤༠ནས	-6863
༥༧དང	-6864
༦རིང	-6865
༨༠ཙམ	-6866
༨བྱས	-6867
༩༨དང	-6868
ཁེབས	-6869
གཅིན	-6870
གཙུག	-6871
གསོལ	-6872
བཀྲམ	-6873
བསྣན	-6874
བྱིན	-6875
མཆིས	-6876
འཐུང	-6877
འཐེན	-6878
འདེམ	-6879
འཚུབ	-6880
རྒྱབ	-6881
རྔུལ	-6882
རྟོག	-6883
རླངས	-6884
ལེའུ	-6885
ཤུགས	-6886
སྒེར	-6887
ྐྲུན	-6888
ྒྲུབ	-6889
ྗོངས	-6890
▁༡༠༡	-6891
▁༡༥༨	-6892
▁༡༦༥	-6893
▁༡༦༦	-6894
▁༡༧ལ	-6895
▁༡༨ལ	-6896
▁༡མི	-6897
▁༢༢༥	-6898
▁༢༣༠	-6899
▁༢བར	-6900
▁༣པར	-6901
▁ཀེལ	-6902
▁ཀླས	-6903
▁ཁག༤	-6904
▁ཁག༧	-6905
▁ཁང༢	-6906
▁ཁྲར	-6907
▁གང་	-6908
▁གཅུ	-6909
▁གཅོ	-6910
▁གཡི	-6911
▁གྱོ	-6912
▁ངོ༨	-6913
▁ཅེན	-6914
▁ཆ༡༡	-6915
▁ཆ༩༩	-6916
▁ཇིབ	-6917
▁ཇེམ	-6918
▁ཇོར	-6919
▁ཏུས	-6920
▁ནེལ	-6921
▁པ༡༣	-6922
▁པལོ	-6923
▁པོལ	-6924
▁ཕེར	-6925
▁ཕྲར	-6926
▁བ༡༣	-6927
▁བདལ	-6928
▁བམས	-6929
▁བཙག	-6930
▁བུག	-6931
▁བེང	-6932
▁བྲུ	-6933
▁མ༡༨	-6934
▁མ༢༩	-6935
▁མཇའ	-6936
▁ཙོག	-6937
▁ཝིར	-6938
▁ཞུལ	-6939
▁འཛའ	-6940
▁ཡའུ	-6941
▁ཡེན	-6942
▁རའང	-6943
▁རྨུ	-6944
▁ལེ༧	-6945
▁ལོམ	-6946
▁ཤུང	-6947
▁ཤོལ	-6948
▁སེས	-6949
▁སྟོ	-6950
▁སྡར	-6951
▁སྣ༣	-6952
▁སྦམ	-6953
▁སླག	-6954
▁ཧོབ	-6955
▁ཧྭང	-6956
༠༠བཅས	-6957
༡༡ཟིན	-6958
༡༤བཅས	-6959
༡༥ཡིན	-6960
༡༧ཡོད	-6961
༢༡ཉིན	-6962
༢༡ཡིན	-6963
༢༣ཡོད	-6964
༢༤ཡིན	-6965
༢༥འཕར	-6966
༢༦ཟིན	-6967
༢༧གྱི	-6968
༢༩ཡིན	-6969
༢༩ལོར	-6970
༣༠ཡིན	-6971
༣༠ལོར	-6972
༣༡ཟིན	-6973
༣༡ཡོད	-6974
༣༢ཡོད	-6975
༣༤ཡོད	-6976
༣༥བཅས	-6977
༣༦ཡོད	-6978
༣༧ལོར	-6979
༤༠ལོར	-6980
༤༧ཟིན	-6981
༥༠༠ཅན	-6982
༦༨ཟིན	-6983
༧༠ཡོད	-6984
༧༧ཡོད	-6985
༩༠ལྷག	-6986
༩༨༥དང	-6987
མཁྱེན	-6988
འབྲོང	-6989
འཚོགས	-6990
སྐྱེད	-6991
སྐྱོན	-6992
▁༡༠༠ལ	-6993
▁༡༡ནས	-6994
▁༡༥དང	-6995
▁༡༥བར	-6996
▁༡༥ཙམ	-6997
▁༡༦དང	-6998
▁༡༩༧༠	-6999
▁༢༠༠༨	-7000
▁༢༠དང	-7001
▁༢པའི	-7002
▁༢ཡོད	-7003
▁༢ལྷག	-7004
▁༣༥༠༠	-7005
▁༣བོད	-7006
▁༣ཡོད	-7007
▁༤༦༠༠	-7008
▁༤ཡོད	-7009
▁༥༠བར	-7010
▁༥ཟིན	-7011
▁༦༠ཙམ	-7012
▁༦༠ལས	-7013
▁༧༠ཙམ	-7014
▁༧ལྷག	-7015
▁ཀྱངས	-7016
▁ཁཞེས	-7017
▁གཟིར	-7018
▁གཟེང	-7019
▁གེའང	-7020
▁ངོ༥༠	-7021
▁ཅུའེ	-7022
▁ཆགདེ	-7023
▁ཆགཚེ	-7024
▁ཆུའམ	-7025
▁ཆོགད	-7026
▁ཉེའར	-7027
▁ཐུང་	-7028
▁ཐོབས	-7029
▁དགེས	-7030
▁དགྲར	-7031
▁དངནན	-7032
▁དཔེས	-7033
▁དམིག	-7034
▁དྲོལ	-7035
▁ནིརང	-7036
▁ནིལྷ	-7037
▁པདྨོ	-7038
▁པའགོ	-7039
▁པའིཆ	-7040
▁པཡིན	-7041
▁པསྟེ	-7042
▁པུའང	-7043
▁པོགས	-7044
▁ཕུང་	-7045
▁བཀའི	-7046
▁བཀྲི	-7047
▁བདངས	-7048
▁བཤོས	-7049
▁བསྐུ	-7050
▁བསྟད	-7051
▁བྱིད	-7052
▁བྷའི	-7053
▁བྷུང	-7054
▁མཁུར	-7055
▁མཁོས	-7056
▁མནྡེ	-7057
▁ཙུའོ	-7058
▁ཚད༨༥	-7059
▁ཚུའུ	-7060
▁ཚོ༡༢	-7061
▁ཚོད༤	-7062
▁ཞུདང	-7063
▁འཐུག	-7064
▁འཐུད	-7065
▁འདོང	-7066
▁འཕྱག	-7067
▁འཕྲུ	-7068
▁འབིས	-7069
▁འཚོབ	-7070
▁ཡུའི	-7071
▁ཡེངས	-7072
▁རུངས	-7073
▁རྒུམ	-7074
▁རྟོལ	-7075
▁རྡེལ	-7076
▁རྡོས	-7077
▁རྨོན	-7078
▁རླིང	-7079
▁ལམ༣༠	-7080
▁ལེབས	-7081
▁ལོ༢༢	-7082
▁ལྗངས	-7083
▁ལྗོང	-7084
▁ལྡོམ	-7085
▁ཤེའི	-7086
▁སྐྲི	-7087
▁སྒོབ	-7088
▁སྒྲན	-7089
▁སྙིག	-7090
▁སྟུད	-7091
▁སྦུབ	-7092
༠༠༠ཟིན	-7093
༠༠སྔོན	-7094
༡༠༠ཡོད	-7095
༡༣༧ཡོད	-7096
༢༧༧ཡོད	-7097
༩༠༠ལྷག	-7098
▁༡༠༠ལས	-7099
▁༡༠ཡོད	-7100
▁༡༣པའི	-7101
▁༡༣ལྷག	-7102
▁༡༦ཡོད	-7103
▁༣༠རིང	-7104
▁༣༨ཡོད	-7105
▁༥༠༠ཡན	-7106
▁༨༠ཟིན	-7107
▁༩༥ཟིན	-7108
▁ཀརྨའི	-7109
▁ཁྲི༥༠	-7110
▁ཁྲི༥༧	-7111
▁ཁྲི༧༠	-7112
▁གནདལས	-7113
▁གཞིཡི	-7114
▁གཤོགས	-7115
▁གསེམས	-7116
▁གིམཁའ	-7117
▁གོཞེས	-7118
▁གྲྭདང	-7119
▁ཅནཞེས	-7120
▁ཆའི༡༦	-7121
▁ཆའི༩༥	-7122
▁ཆོགགལ	-7123
▁ཆོགནང	-7124
▁ཇུསདང	-7125
▁ཏེབོད	-7126
▁དེབདང	-7127
▁དེབནང	-7128
▁ནི༡༩༥	-7129
▁ནི༡༩༦	-7130
▁པའིགེ	-7131
▁པའིཐང	-7132
▁པའིལོ	-7133
▁པསྤྱི	-7134
▁པསློབ	-7135
▁བ༢པའི	-7136
▁བ༦པའི	-7137
▁བ༨པའི	-7138
▁བཀུགས	-7139
▁བཀྱེད	-7140
▁བརྙེད	-7141
▁བསྐྱང	-7142
▁བསྐྱབ	-7143
▁བསྒྲལ	-7144
▁བསྙེས	-7145
▁བསྲུབ	-7146
▁བོཞེས	-7147
▁བྲེགས	-7148
▁མ༣༠ཡི	-7149
▁མགུའི	-7150
▁ཚོད༡༦	-7151
▁ཚོད༡༨	-7152
▁ཚོད༢༤	-7153
▁འགྲུམ	-7154
▁འཆརདེ	-7155
▁འཇིབས	-7156
▁འཐུང་	-7157
▁འདྲུབ	-7158
▁འཕྱིང	-7159
▁འཕྱོང	-7160
▁འཚེམས	-7161
▁ཡིགལྷ	-7162
▁རབས༦༠	-7163
▁རྐྱའི	-7164
▁རྒནདང	-7165
▁རྙོགས	-7166
▁རྡལཁག	-7167
▁ལརྒྱལ	-7168
▁ལསློབ	-7169
▁ལེཡོད	-7170
▁ལེལྷག	-7171
▁ལོ༡༤༠	-7172
▁ལོ༡༨ལ	-7173
▁སུབོད	-7174
▁སྐྲོད	-7175
▁སྒོར༢	-7176
▁སྡིགས	-7177
▁སྨི༤༧	-7178
▁སྨྲའི	-7179
▁སློབས	-7180
༢༠༠༥ལོར	-7181
▁༡༠སྣོན	-7182
▁༡༢༢ཡོད	-7183
▁༡༩༩༦ལོ	-7184
▁༣༡༤དོན	-7185
▁༥༠༠༠ཡན	-7186
▁ཀྱིསབྱ	-7187
▁ཀྱིསམི	-7188
▁ཁགགྲོང	-7189
▁ཁམསཞེས	-7190
▁ཁུལཞེས	-7191
▁ཁྲི༡༢ལ	-7192
▁ཁྲི༡༤༧	-7193
▁ཁྲི༢ཙམ	-7194
▁ཁྲི༥ནས	-7195
▁ཁྲི༦༠༠	-7196
▁ཁྲི༦ཙམ	-7197
▁གནསཀྱི	-7198
▁གསུམནི	-7199
▁གིསཞིང	-7200
▁གྱིསམི	-7201
▁གྲངས༣༥	-7202
▁གྲངས༧༥	-7203
▁གློགལམ	-7204
▁ངེསཞེས	-7205
▁ཆགརྒྱལ	-7206
▁ཆེནརྒྱ	-7207
▁ཏེཀྲུང	-7208
▁ཐེངས༡༠	-7209
▁ཐེངས༡༣	-7210
▁དངསྲོལ	-7211
▁ནསགཅིག	-7212
▁ནསམཛེས	-7213
▁པའིའཛམ	-7214
▁པའིཡུལ	-7215
▁པོབྱེད	-7216
▁ཕྱུར༣༤	-7217
▁ཕྱུརདང	-7218
▁བ༡༠པའི	-7219
▁བཀྱིགས	-7220
▁བཅུགཟླ	-7221
▁བརྩིའི	-7222
▁བསྐྱེལ	-7223
▁བྱསཞེས	-7224
▁མཇུགགི	-7225
▁མཛོདལས	-7226
▁མོརགཏན	-7227
▁ཚིགས༡༣	-7228
▁ཚུལཞེས	-7229
▁འཁྱོགས	-7230
▁འགོདདུ	-7231
▁འཆརགཤམ	-7232
▁འདུགཔར	-7233
▁འདུགཤང	-7234
▁འདུགསི	-7235
▁འཕྲོགས	-7236
▁འོགམཚོ	-7237
▁ཡིགགིས	-7238
▁ཡིགབཟོ	-7239
▁ཡུལཞེས	-7240
▁རོའདོན	-7241
▁རྒྱུཚི	-7242
▁རྩསཞིང	-7243
▁སིནྡྷུ	-7244
▁སྐྱེའོ	-7245
▁སྐྱོགས	-7246
▁སྒོར༡༧	-7247
▁སྒོར༡༩	-7248
▁སྒོར༢༤	-7249
▁སྒོར༦༥	-7250
▁སྤྱུགས	-7251
▁སྤྱོདལ	-7252
▁སློབཏུ	-7253
༡༩༤༩ལོའི	-7254
༣༨ནས༡༢༢༧	-7255
ཚེས༡༢ཉིན	-7256
▁༡༩༠༣ལོར	-7257
▁༡༩༠༤ལོར	-7258
▁༡༩༤༨ལོར	-7259
▁༡༩༥༤ལོར	-7260
▁༡༩༦༢ལོར	-7261
▁༡༩༦༥ལོར	-7262
▁༡༩༧༢ལོར	-7263
▁༡༩༨༠ལོར	-7264
▁༢༠༡༦ལོར	-7265
▁༢༠༥༠ལོར	-7266
▁ཀྱིདམངས	-7267
▁ཀྱིསཐོན	-7268
▁ཁྲི༥ལྷག	-7269
▁ཁྲི༦༥༢༩	-7270
▁ཁྲིམསདང	-7271
▁གཅིགགིས	-7272
▁གཅིགགུང	-7273
▁གཅིགཅུང	-7274
▁གསུམརིང	-7275
▁གྱིདམངས	-7276
▁གྲངས༡༢༠	-7277
▁གྲངསཡོད	-7278
▁ཆའི༩༠ཡན	-7279
▁ཆོགསྤྱི	-7280
▁ཐབསསོགས	-7281
▁ཐོགགྲོང	-7282
▁ཐོབཀྲམས	-7283
▁པའིགཅིག	-7284
▁པའིགློག	-7285
▁པའིཚོགས	-7286
▁ཕྱུར༡༦༥	-7287
▁བཤདསོགས	-7288
▁བསྒྲིམས	-7289
▁བསྒྲོགས	-7290
▁མའིབསྟན	-7291
▁ཚགསཀྱིས	-7292
▁ཚེས༢༥ནས	-7293
▁ཚོགསཀྱི	-7294
▁འཁོརལོན	-7295
▁འགོདཅེས	-7296
▁འགྱུརདང	-7297
▁འདུགནོར	-7298
▁འདུགཚེས	-7299
▁འདུགཡུལ	-7300
▁འདུགརིག	-7301
▁ཡིགཀྲུང	-7302
▁ཡིགའདིར	-7303
▁ཡིགསོགས	-7304
▁རབས༢༡པར	-7305
▁རྒྱསཀྱི	-7306
▁རྒྱུཞེས	-7307
▁རྙེདཅེས	-7308
▁ལུགསཀྱི	-7309
▁ལྷནབྱེད	-7310
▁སྐོརགྱི	-7311
▁སྐོརཞེས	-7312
▁སྒོར༡༢༠	-7313
▁སྒྲིགདེ	-7314
▁སྒྲོགཟླ	-7315
▁༠༨༩༡༦༨༤༥	-7316
▁༡༩༠༤ལོའི	-7317
▁༡༩༦༢༥ཡོད	-7318
▁༡༩༦༥ལོའི	-7319
▁༡༩༨༣ལོའི	-7320
▁༡༩༨༦ལོའི	-7321
▁༡༩༩༡ལོའི	-7322
▁༡༩༩༩ལོའི	-7323
▁ཁྱེར༧༤ཡི	-7324
▁ཁྲི༢༠ལྷག	-7325
▁ཁྲིམསབཟོ	-7326
▁གཅིགསྤྱི	-7327
▁གསུམབརྟན	-7328
▁ངོ༦༠འཁོར	-7329
▁ཇོའིདངོས	-7330
▁དབྱངསཞེས	-7331
▁བཅསཕྱོགས	-7332
▁བརྗོདཀྱི	-7333
▁མགྲིནཤིན	-7334
▁འཇུགསོགས	-7335
▁འདུགཁྱེད	-7336
▁འདུགབྱམས	-7337
▁འདུགའདིས	-7338
▁འདུགལོའི	-7339
▁རབས༢༠བའི	-7340
▁ལོ༢༠༡༣ལོ	-7341
▁ལོ༥༠འཁོར	-7342
▁སྟེརྒྱུད	-7343
▁སྦྲེལགྱི	-7344
▁ཁྲི༢༠༠ལྷག	-7345
▁གཅིགའཛུགས	-7346
▁ཆའི༡༡༥ཟིན	-7347
▁པ༢༠༡༥ལོའི	-7348
▁བསྐྲུནཞེས	-7349
▁ཞིགདངཀྲུང	-7350
▁ལོ༡༩༩༥ལོར	-7351
▁ལོ༢༠༡༥ལོར	-7352
▁སོགསལྗོངས	-7353
▁སྐབས༢༧པའི	-7354
▁སྐརརྒྱུགས	-7355
▁སྒྲིགགྲོང	-7356
▁སྟེགསབཏོད	-7357
▁ནས༢༠༡༠ལོའི	-7358
▁ནི༢༠༡༢ལོའི	-7359
▁ཟླ༤ཚེས༥ཉིན	-7360
▁ལོ༢༠༠༨ལོའི	-7361
▁སྐབསཔའིབོད	-7362
༣༨ནས༡༢༢༧ལོའི	-7363
▁པནས༢༠༡༤ལོའི	-7364
▁བའི༢༠༡༢ལོའི	-7365
▁ཟླ༡ཚེས༢༠ཉིན	-7366
▁ཟླ༣ཚེས༣༡ཉིན	-7367
▁ཆག༡༩༤༩༡༩༩༡ནང	-7368
▁འདུག༢༠༡༤ལོའི	-7369
▁ལྗོངས༥༡༠༠ཀུང	-7370
༣པ	-7371
ཀར	-7372
ཁས	-7373
ཅང	-7374
དད	-7375
དྷ	-7376
ནེ	-7377
པས	-7378
ཚབ	-7379
རྦ	-7380
རྭ	-7381
ཤྲ	-7382
ཧང	-7383
ཧོ	-7384
ིཀ	-7385
ྐམ	-7386
ྐྲ	-7387
ྗང	-7388
ྙེ	-7389
ྤོ	-7390
ྦྷ	-7391
ླར	-7392
༡༡༦	-7393
༡༢༧	-7394
༡༥༨	-7395
༡༦༩	-7396
༡༨༢	-7397
༡༨༥	-7398
༢༡༥	-7399
༢༦ལ	-7400
༢ཡས	-7401
༣༠༥	-7402
༣༣ལ	-7403
༣༥༤	-7404
༣༦༨	-7405
༣༦ལ	-7406
༣༩ལ	-7407
༣ཇེ	-7408
༤༩ལ	-7409
༥༢ལ	-7410
༦༡༧	-7411
༦༧ལ	-7412
༧༡༢	-7413
༧༦༤	-7414
༨པར	-7415
༩༠ལ	-7416
ཁྱོ	-7417
གཉན	-7418
གཉའ	-7419
གཟབ	-7420
གུར	-7421
གླང	-7422
ཉིད	-7423
ཉེར	-7424
ཐེར	-7425
དགུ	-7426
དཔང	-7427
དྲས	-7428
བསད	-7429
བསྒ	-7430
བྲོ	-7431
མཁན	-7432
མཚལ	-7433
མོས	-7434
ཞིར	-7435
ཞོག	-7436
ཡངས	-7437
ཡུས	-7438
རྩལ	-7439
སྐམ	-7440
སྟག	-7441
སྨི	-7442
ཧུང	-7443
ུདང	-7444
ུབད	-7445
ུལག	-7446
ོགི	-7447
ོེར	-7448
ྐོས	-7449
ྟགས	-7450
ྟེན	-7451
ྡོད	-7452
ྡོམ	-7453
ྫོང	-7454
ྱོར	-7455
▁༢ལ	-7456
▁༤པ	-7457
▁༤བ	-7458
▁༥༢	-7459
▁༥པ	-7460
▁༦པ	-7461
▁༦ལ	-7462
▁༧༡	-7463
▁༧ལ	-7464
▁༩༧	-7465
▁ཆ༣	-7466
▁ཆ༥	-7467
▁ཆ༨	-7468
▁ཉྭ	-7469
▁ན༤	-7470
▁ནྭ	-7471
▁པག	-7472
▁མ༡	-7473
▁མའ	-7474
▁ཧད	-7475
༡༡གི	-7476
༡༢ནས	-7477
༡༩༩༠	-7478
༢༠ཡས	-7479
༢༤བར	-7480
༢༤ཡི	-7481
༢༤ལས	-7482
༢༦དང	-7483
༢༧དང	-7484
༢༨དང	-7485
༢༩དང	-7486
༢༩ཡི	-7487
༤ལོན	-7488
༥༠ནས	-7489
༥༠ཡས	-7490
༥གསར	-7491
༦༥དང	-7492
༦༥ཙམ	-7493
༦༧དང	-7494
༧༠ཡན	-7495
༩༠ཙམ	-7496
༩༣དང	-7497
༩༥དང	-7498
༩༥ལོ	-7499
༩བཏང	-7500
༩ལྷག	-7501
ཀློག	-7502
ཁྲིད	-7503
གཏིང	-7504
གཏོར	-7505
གདུང	-7506
གདོང	-7507
དཔུང	-7508
དབྱེ	-7509
ཕྱུག	-7510
ཕྲེང	-7511
བསྐལ	-7512
མཛོད	-7513
མིགས	-7514
མུའུ	-7515
འགོག	-7516
འཇུག	-7517
འདོད	-7518
འདྲི	-7519
འཚེམ	-7520
རྒྱང	-7521
རྒྱན	-7522
ལོངས	-7523
སྨོན	-7524
སྲིན	-7525
ུགསར	-7526
ོལྷག	-7527
ྐྱོན	-7528
ྒྱེལ	-7529
ྦྲུམ	-7530
ྨྱུག	-7531
▁༡༢༤	-7532
▁༡༢༧	-7533
▁༡༢༨	-7534
▁༡༣༨	-7535
▁༡༧༧	-7536
▁༡༨༣	-7537
▁༡ལས	-7538
▁༢༠༨	-7539
▁༢༡༤	-7540
▁༢༡༧	-7541
▁༢༢༦	-7542
▁༢༦༠	-7543
▁༢༨༩	-7544
▁༢ཙམ	-7545
▁༣༢༨	-7546
▁༤༢༥	-7547
▁༤པར	-7548
▁༦༢༢	-7549
▁༨ནས	-7550
▁༩དང	-7551
▁ཀླན	-7552
▁ཁའར	-7553
▁ཁེམ	-7554
▁གནན	-7555
▁གའམ	-7556
▁གེད	-7557
▁གྱུ	-7558
▁ངོན	-7559
▁ཅན༥	-7560
▁ཅའེ	-7561
▁ཆ༣༨	-7562
▁ཏུམ	-7563
▁ཐིལ	-7564
▁དཔས	-7565
▁དེམ	-7566
▁དྲུ	-7567
▁ནསང	-7568
▁ནེས	-7569
▁པ༡༢	-7570
▁པ༢༠	-7571
▁པམི	-7572
▁ཕུམ	-7573
▁ཕོབ	-7574
▁ཕོས	-7575
▁ཕྲས	-7576
▁བཙུ	-7577
▁བཞར	-7578
▁བྷས	-7579
▁མ༢༢	-7580
▁མ༢༣	-7581
▁མ༢༦	-7582
▁མ༢༨	-7583
▁མ༤༦	-7584
▁མཐས	-7585
▁མནམ	-7586
▁མལས	-7587
▁མུང	-7588
▁མེལ	-7589
▁མོཨ	-7590
▁ཙུན	-7591
▁ཙེས	-7592
▁ཚོ༧	-7593
▁ཚོ༨	-7594
▁ཝེད	-7595
▁འདེ	-7596
▁རྔལ	-7597
▁རྟོ	-7598
▁རྦེ	-7599
▁རླག	-7600
▁ལམ༢	-7601
▁ལམས	-7602
▁ལས༣	-7603
▁ལས༤	-7604
▁ལིད	-7605
▁ལོ༧	-7606
▁ལོ༩	-7607
▁སདང	-7608
▁སལེ	-7609
▁སྐག	-7610
▁སྲག	-7611
▁སྲད	-7612
▁ཧའི	-7613
▁ཧེལ	-7614
▁ཧེས	-7615
▁ཨརྱ	-7616
▁ཨིར	-7617
▁ཨེལ	-7618
༡༠བཅས	-7619
༡༡ཡོད	-7620
༡༢བཏང	-7621
༡༣ཟིན	-7622
༡༤ཟིན	-7623
༡༤ཡིས	-7624
༡༤ལོར	-7625
༡༥དེབ	-7626
༡༧ལོར	-7627
༡༧ལྷག	-7628
༡༨འཕར	-7629
༡༩ལྷག	-7630
༢༠༠ལས	-7631
༢༠འཕར	-7632
༢༠ཡིས	-7633
༢༢འཕར	-7634
༢༥ཡིས	-7635
༢༥ལོར	-7636
༢༦ཉིན	-7637
༢༦འཕར	-7638
༢ཀྱིས	-7639
༣༢ཟིན	-7640
༣༤འཕར	-7641
༣༩ཡོད	-7642
༣༩ལོར	-7643
༤༠ཟིན	-7644
༤༠རིང	-7645
༤༤འཕར	-7646
༤༤ཡོད	-7647
༤༧བཏང	-7648
༤༨ལོར	-7649
༥༤ཟིན	-7650
༥༤ཡོད	-7651
༥༦ལོར	-7652
༦༣འཕར	-7653
༦༥ལོར	-7654
༦སྤྲད	-7655
༩༠ཟིན	-7656
༩༠ཡོད	-7657
༩༣ཡོད	-7658
༩༧ཟིན	-7659
༩ལེགས	-7660
བཅིངས	-7661
བསྟུད	-7662
བསྟོད	-7663
མཚེའུ	-7664
འཁྱགས	-7665
འཁྲིག	-7666
འཁྲིད	-7667
འགྲིམ	-7668
འགྲེལ	-7669
སྦྱིན	-7670
▁༡༡དང	-7671
▁༡༣༨༥	-7672
▁༡༣ནས	-7673
▁༡༤༡༩	-7674
▁༡༥ཡི	-7675
▁༡༧པར	-7676
▁༡༩ནས	-7677
▁༡ཐོག	-7678
▁༢༥བར	-7679
▁༢༨དང	-7680
▁༣༠༠ལ	-7681
▁༣༠དང	-7682
▁༤༥དང	-7683
▁༤༥ཙམ	-7684
▁༤རིམ	-7685
▁༤ལྷག	-7686
▁༥ཡིན	-7687
▁༥རིམ	-7688
▁༦༠ཡི	-7689
▁༦ཡོད	-7690
▁༧བཏང	-7691
▁༧ཟིན	-7692
▁༩ཚེས	-7693
▁༩ཡིས	-7694
▁ཀྲུས	-7695
▁ཁག༡༢	-7696
▁ཁགདེ	-7697
▁ཁགཚན	-7698
▁ཁགལས	-7699
▁ཁངནང	-7700
▁ཁངནས	-7701
▁ཁོགས	-7702
▁ཁྱབས	-7703
▁ཁྱིར	-7704
▁ཁྱུས	-7705
▁ཁྱོར	-7706
▁གདོལ	-7707
▁གནས༦	-7708
▁གཙུབ	-7709
▁གཞི༧	-7710
▁གཞིལ	-7711
▁གཤེས	-7712
▁གསེལ	-7713
▁གིམི	-7714
▁གེདང	-7715
▁གྱི༤	-7716
▁གྲུན	-7717
▁ངགགེ	-7718
▁ངོ༡༠	-7719
▁ངོ༦༧	-7720
▁ངོཡི	-7721
▁ཆུགས	-7722
▁ཆུང་	-7723
▁ཆོདལ	-7724
▁ཉིན༥	-7725
▁ཏུའར	-7726
▁ཏེའུ	-7727
▁ཐབསལ	-7728
▁ཐིབས	-7729
▁ཐིའི	-7730
▁ཐིའུ	-7731
▁ཐུའོ	-7732
▁ཐེགས	-7733
▁ཐོདང	-7734
▁ཐོའུ	-7735
▁ཐྲིར	-7736
▁དཀའོ	-7737
▁དགྲམ	-7738
▁དངགས	-7739
▁དབའས	-7740
▁དམགས	-7741
▁དུདག	-7742
▁དེའམ	-7743
▁ནསལྔ	-7744
▁ནུའུ	-7745
▁པམཐོ	-7746
▁པརདེ	-7747
▁པརལོ	-7748
▁པལགས	-7749
▁པིནལ	-7750
▁པོལས	-7751
▁པྲའི	-7752
▁ཕུངས	-7753
▁ཕྱོག	-7754
▁བ༣པར	-7755
▁བ༤པར	-7756
▁བཅུན	-7757
▁བཙནལ	-7758
▁བཙུད	-7759
▁བཞགས	-7760
▁བཞེར	-7761
▁བཤའི	-7762
▁བསྒོ	-7763
▁བླུད	-7764
▁མ༡༠༠	-7765
▁མཁྲང	-7766
▁མགོས	-7767
▁མཇེད	-7768
▁མཉེམ	-7769
▁མཚོག	-7770
▁མི༡༠	-7771
▁མི༡༦	-7772
▁མི༢༨	-7773
▁མི༢༩	-7774
▁མིགས	-7775
▁ཚོ༡༣	-7776
▁ཚོ༡༦	-7777
▁ཚོ༢༥	-7778
▁ཚོཨུ	-7779
▁ཞེའུ	-7780
▁ཞོའོ	-7781
▁ཟླ༢པ	-7782
▁ཟླ༥བ	-7783
▁ཟླའང	-7784
▁འཆུན	-7785
▁འཇུན	-7786
▁འཐོམ	-7787
▁འཚིམ	-7788
▁འཚེས	-7789
▁འཚོད	-7790
▁འོགམ	-7791
▁ཡོའོ	-7792
▁རཏྣེ	-7793
▁རིངས	-7794
▁རིའམ	-7795
▁རྐའི	-7796
▁རྐོན	-7797
▁རྐྱན	-7798
▁རྔའི	-7799
▁རྡོང	-7800
▁རྩའང	-7801
▁རྫོད	-7802
▁ལས༡༢	-7803
▁ལས༡༩	-7804
▁ལིའོ	-7805
▁ལེ༡༤	-7806
▁ལེ༣༥	-7807
▁ལོ༢༣	-7808
▁ལོ༢༥	-7809
▁ལོ༦༣	-7810
▁ལོའོ	-7811
▁ལོལོ	-7812
▁ལྟིར	-7813
▁ལྡིབ	-7814
▁ཤིའུ	-7815
▁ཤུའེ	-7816
▁ཤེའུ	-7817
▁ཤོངས	-7818
▁སའི༣	-7819
▁སེའམ	-7820
▁སྐམས	-7821
▁སྒམལ	-7822
▁སྙམས	-7823
▁སྙོག	-7824
▁སྟུན	-7825
▁སྟེད	-7826
▁སྡུམ	-7827
▁སྤོད	-7828
▁སྤྱོ	-7829
▁སློར	-7830
▁ཧོའེ	-7831
▁ཧྲུའ	-7832
༡༠༠༠ལས	-7833
༡༥༠ལྷག	-7834
༢༠༠༠ལོ	-7835
༢༠༠༨ལོ	-7836
༢༠༡༢ལོ	-7837
༥༥འཁོར	-7838
༦༡མངོན	-7839
༨༠ལེགས	-7840
དངགཉིས	-7841
བསྐྱོད	-7842
▁༡༢༠ཙམ	-7843
▁༡༢ཡོད	-7844
▁༡༧ཡོད	-7845
▁༡༨གྱི	-7846
▁༡སློབ	-7847
▁༢༠པའི	-7848
▁༢༠བའི	-7849
▁༢༠ཡིས	-7850
▁༢༡༡ལས	-7851
▁༥༠ཟིན	-7852
▁༦༠རིང	-7853
▁༧༠ཟིན	-7854
▁༧༡ཟིན	-7855
▁༩༠བའི	-7856
▁ཀཕྱིས	-7857
▁ཀྱིསས	-7858
▁ཁབཀྱི	-7859
▁ཁྲི༥༨	-7860
▁ཁྲི༧༥	-7861
▁ཁྲིནས	-7862
▁ཁྲིལས	-7863
▁གཅིགཇ	-7864
▁གཅིགཐ	-7865
▁གཅིགཔ	-7866
▁གཅིགམ	-7867
▁གཅིགཟ	-7868
▁གཉྫིར	-7869
▁གནས༡༣	-7870
▁གཞིལོ	-7871
▁གཡེངས	-7872
▁གཡོའི	-7873
▁གཤིབས	-7874
▁གསོའང	-7875
▁གྱིཆུ	-7876
▁གྱིདང	-7877
▁གྱིདྲ	-7878
▁གྱིམི	-7879
▁གྲངས༠	-7880
▁གྲངས༥	-7881
▁གྲྭཁེ	-7882
▁གླིང་	-7883
▁ཅནཞིག	-7884
▁ཆགདཔེ	-7885
▁ཆགམཚོ	-7886
▁ཆའི༡༢	-7887
▁ཆའི༡༣	-7888
▁ཆའི༦༠	-7889
▁ཆའི༧༥	-7890
▁ཆུཞེས	-7891
▁ཏུབོད	-7892
▁དཀྱོག	-7893
▁དགབོད	-7894
▁དགའཡི	-7895
▁དོནདང	-7896
▁ནགམཚལ	-7897
▁ནངབོད	-7898
▁ནིཡིན	-7899
▁པའདིར	-7900
▁པའིལམ	-7901
▁པརཐོག	-7902
▁བཅོམལ	-7903
▁བབཀྱི	-7904
▁བརྐོག	-7905
▁བརྩོད	-7906
▁བརྫེས	-7907
▁བལྟའོ	-7908
▁བཤདབྱ	-7909
▁བསྒུག	-7910
▁བསྒུལ	-7911
▁བསྙིལ	-7912
▁བསྣུབ	-7913
▁བསྲུན	-7914
▁མཐོང་	-7915
▁མདོལས	-7916
▁མཚོའུ	-7917
▁མིགདང	-7918
▁མོརྒྱ	-7919
▁ཚེས༡༣	-7920
▁ཚོད༡༣	-7921
▁ཞིགཏང	-7922
▁ཞུབཅས	-7923
▁འགྲོག	-7924
▁འཆུགས	-7925
▁འདིའོ	-7926
▁འདུགཀ	-7927
▁འདུགཚ	-7928
▁འབྱུག	-7929
▁ཡིསལོ	-7930
▁རིགསལ	-7931
▁རྒྱུུ	-7932
▁རྨིད༥	-7933
▁རྨུགས	-7934
▁རྩེབས	-7935
▁ལམཞེས	-7936
▁ལོ༧༠ལ	-7937
▁ལྗེའུ	-7938
▁ལྷནཨུ	-7939
▁སྐྱོམ	-7940
▁སྒྱོག	-7941
▁སྒྲའང	-7942
▁སྒྲུས	-7943
▁སྙིའི	-7944
▁སྟིའི	-7945
▁སྟེལོ	-7946
▁སྡོངས	-7947
▁སྤྱོང	-7948
▁སྤྲགས	-7949
▁སྤྲིལ	-7950
▁སྦྱོབ	-7951
▁སྦྲེང	-7952
▁སྨི༣༥	-7953
▁སྨི༣༦	-7954
▁སྲོལལ	-7955
▁ཧྲུའི	-7956
▁ཧྲེའི	-7957
༠༠སྤྲོད	-7958
༡༥༠༠ལྷག	-7959
༨༠༠༠ལྷག	-7960
▁༡༠༠༠ཙམ	-7961
▁༡༠༠ཟིན	-7962
▁༡༣གྱིས	-7963
▁༡༩༨༤ལོ	-7964
▁༡༩༩༥ལོ	-7965
▁༡༩༩༨ལོ	-7966
▁༢༠༢༠ལོ	-7967
▁༢༠༣༠ལོ	-7968
▁༣༠༠༠ཙམ	-7969
▁༥༠འཁོར	-7970
▁༥༣གྱིས	-7971
▁ཀྱིགཤམ	-7972
▁ཁགརྒྱལ	-7973
▁ཁངསོགས	-7974
▁ཁུལརྣམ	-7975
▁ཁྲི༡༢༠	-7976
▁ཁྲི༡༣༠	-7977
▁ཁྲི༢༠ལ	-7978
▁ཁྲི༢༨༠	-7979
▁ཁྲི༢ནས	-7980
▁ཁྲི༥ལས	-7981
▁ཁྲིཟིན	-7982
▁གཅིགརང	-7983
▁གཅིགལག	-7984
▁གཞིགཏན	-7985
▁གཞིབོད	-7986
▁གཞུངདང	-7987
▁གསུམཐད	-7988
▁གསུམལག	-7989
▁གིསདུས	-7990
▁གིསཞེས	-7991
▁གིསལྷོ	-7992
▁གྱིསངས	-7993
▁གྱིསདེ	-7994
▁གྲངས༡༦	-7995
▁གྲངས༡༩	-7996
▁ངོ༢༠ཡི	-7997
▁ཆའིཟིན	-7998
▁ཆོགགསར	-7999
▁ཆོགཞིང	-8000
▁ཆོགཡིན	-8001
▁ཐེངས༡༤	-8002
▁ཐེངས༢༨	-8003
▁ཐོགབློ	-8004
▁ཐོགཞིང	-8005
▁དགའཞེས	-8006
▁དངསློབ	-8007
▁དེཀྲུང	-8008
▁དེབཀྱི	-8009
▁དེབཅེས	-8010
▁ནསརིགས	-8011
▁པ༦༠ལྷག	-8012
▁པའིཐབས	-8013
▁པའིདཔལ	-8014
▁པའིབདེ	-8015
▁པའིམཚོ	-8016
▁པའིཚུན	-8017
▁པའིརྨང	-8018
▁པའིསྣང	-8019
▁པརསོགས	-8020
▁པརསྤྱི	-8021
▁པསསློབ	-8022
▁ཕྱུར༢༤	-8023
▁ཕྱུར༢༦	-8024
▁ཕྱུར༣༩	-8025
▁ཕྱུར༤༨	-8026
▁ཕྱུར༩༥	-8027
▁བ༡༠བའི	-8028
▁བ༡པོའི	-8029
▁བཅསཀྱི	-8030
▁བཅོསདང	-8031
▁བཞིམཐའ	-8032
▁བའིམཛད	-8033
▁བཤདཀྱི	-8034
▁བསྒྱེལ	-8035
▁མིནཞེས	-8036
▁ཚེས༦ནས	-8037
▁ཚེས༨ནས	-8038
▁ཚོད༡དང	-8039
▁ཞིགཅེས	-8040
▁ཟླ༡༢བར	-8041
▁ཟླཔོའི	-8042
▁འཁྱོམས	-8043
▁འཇུགདང	-8044
▁འདུགཁང	-8045
▁འདུགངག	-8046
▁འདུགཨུ	-8047
▁འདུསལས	-8048
▁འོགཞིང	-8049
▁ཡིགགཤམ	-8050
▁ཡིགཡིག	-8051
▁ཡོདབོད	-8052
▁རིགཕྱི	-8053
▁རིགཡུལ	-8054
▁རིགས༡༢	-8055
▁རིམཞེས	-8056
▁རྒྱུདལ	-8057
▁ལགསྐྱེ	-8058
▁ལགསྲོག	-8059
▁ལམསོགས	-8060
▁ལུགབོད	-8061
▁ལེནགྱི	-8062
▁ལེའུའི	-8063
▁ལོ༣གྱི	-8064
▁ལོངཞེས	-8065
▁ལོསྤྱི	-8066
▁སྐྱུངས	-8067
▁སྒོར༢༠	-8068
▁སྒོར༢༨	-8069
▁སྒོར༣༦	-8070
▁སྒོར༤༥	-8071
▁སྒྲོའི	-8072
▁སྟེབོད	-8073
▁སྟོནདེ	-8074
༢༠༠༠ལོའི	-8075
▁༡༩༥༢ལོར	-8076
▁༡༩༦༠ལོར	-8077
▁༡༩༧༤ལོར	-8078
▁༣༠༠༠ཡོད	-8079
▁ཀྱི༥རིམ	-8080
▁ཀྱིས༢༠༠	-8081
▁ཀྱིསམཉམ	-8082
▁ཁངའཛུགས	-8083
▁ཁྱེརརིམ	-8084
▁གཅིགགྱན	-8085
▁གཅིགཅེས	-8086
▁གཉིསརིང	-8087
▁གཞིབཟོས	-8088
▁གསུམབཅས	-8089
▁གསུམཞེས	-8090
▁གསོགརྣམ	-8091
▁གིསལོའི	-8092
▁གྱིརྒྱལ	-8093
▁གྱིསཡུལ	-8094
▁གྱིསརིག	-8095
▁གྲངས༡༥༠	-8096
▁ངོ༡༠ལྷག	-8097
▁ངོ༡༢རིང	-8098
▁ངོ༣༠རིང	-8099
▁ངོ༣༠ལྷག	-8100
▁ཐེངས༡༢ལ	-8101
▁ཐོགརྫོང	-8102
▁ཐོའིསྙན	-8103
▁དགའདཔྱད	-8104
▁དངརྒྱུད	-8105
▁དངསྤྱོད	-8106
▁དེབརྩོམ	-8107
▁པའིགསེར	-8108
▁པའིགྲོང	-8109
▁པའིལོའི	-8110
▁པའིསྐོར	-8111
▁པའིསྤྱི	-8112
▁ཕྱུར༡༠༠	-8113
▁བདགསློབ	-8114
▁བརྒྱདདང	-8115
▁བརྗོདདང	-8116
▁བསྟནཞེས	-8117
▁བྱུངཟེར	-8118
▁མཛོདཀྱི	-8119
▁མི༣༠ལྷག	-8120
▁ཚེས༡༡ནས	-8121
▁ཚེས༢༥ཡི	-8122
▁ཚེས༢༦ནས	-8123
▁ཚོད༡༨ཡས	-8124
▁ཚོདསྟེང	-8125
▁ཞིགཀྲུང	-8126
▁ཞུརགྲོས	-8127
▁འཁོརགྱི	-8128
▁འཁོརཞེས	-8129
▁འཆརགྱིས	-8130
▁འདུགགངས	-8131
▁འདུགངའི	-8132
▁འདུགངེད	-8133
▁འདུགཕྱི	-8134
▁འདུགབཞི	-8135
▁འདུགམགོ	-8136
▁འདུགམཐོ	-8137
▁འདུགཚོད	-8138
▁འདུགཞིན	-8139
▁འདུགའཛམ	-8140
▁འདུགཡིག	-8141
▁འདུགརྡོ	-8142
▁འདུགལྷག	-8143
▁འདུགསྨན	-8144
▁འདོདཅེས	-8145
▁འབེབསནང	-8146
▁ཡིགབཟོས	-8147
▁ཡིསཀྲུང	-8148
▁རོགསཞེས	-8149
▁རྒྱསཞེས	-8150
▁ལོ༢༠ལྷག	-8151
▁སེལགཞུང	-8152
▁སྐྱོངགི	-8153
▁སྒོརཡིན	-8154
▁སྒྲུངདང	-8155
▁སྟོནཞེས	-8156
▁༡༩༤༩ལོའི	-8157
▁༡༩༨༠ལོའི	-8158
▁༡༩༨༧ལོའི	-8159
▁༡༩༩༡༥དེབ	-8160
▁༡༩༩༣ལོའི	-8161
▁༥༡༠༠གཏེར	-8162
▁ཀྱིསགྲོང	-8163
▁ཀྱིསམཛེས	-8164
▁ཁུལ༧༤ལྷག	-8165
▁ཁྱེརགྲོང	-8166
▁ཁྲི༡༠༠ལས	-8167
▁ཁྲི༥༠ལྷག	-8168
▁གཅིགབྱིས	-8169
▁གཉིསསོགས	-8170
▁གཏོདསློབ	-8171
▁གསུམསོགས	-8172
▁གྱིསཀྲུང	-8173
▁གྲྭརསློབ	-8174
▁ངོ༦༧འཁོར	-8175
▁ཏོགསྒྲོལ	-8176
▁པ༣༠༠༠ལྷག	-8177
▁པའིཁྲིམས	-8178
▁པའིའབྲེལ	-8179
▁ཕྲུགབྱེད	-8180
▁བཅུགསློབ	-8181
▁བསྒྲགསནང	-8182
▁མ༡༥༠༠ཡོད	-8183
▁མཇུགཀྲུང	-8184
▁ཙུའུཀྱིས	-8185
▁འགྱུརཆེན	-8186
▁འཇུགསློབ	-8187
▁འདུགགཉིས	-8188
▁འདུགདགོན	-8189
▁འདུགདངོས	-8190
▁རིགགཟུགས	-8191
▁རྫོངཆུསལ	-8192
▁ལམ༣༡༨ཀྱི	-8193
▁ལོ༢༠༠༨ལོ	-8194
▁ལོ༢༠འཁོར	-8195
▁ལོའིབྱེད	-8196
▁སྐྱོརགྱི	-8197
▁སྒོར༢༠༠༠	-8198
▁སྒོར༢༣༠༠	-8199
▁སྒྲིགཞིང	-8200
▁ཁྲི༣༠༠ལྷག	-8201
▁གཞིདངཀྲུང	-8202
▁པ༢༠༡༢ལོའི	-8203
▁ཕྱུར༡༢བཏང	-8204
▁ཕྱུར༧༥བཏང	-8205
▁འགྱུརགྱིས	-8206
▁ཡིགབརྒྱུད	-8207
▁རིགས༢༠ལྷག	-8208
▁རྒྱུདསོགས	-8209
▁ལོ༡༩༨༠ལོར	-8210
▁ལོ༡༩༨༥ལོར	-8211
▁ལྗོངས༢༠༡༣	-8212
▁སྒྲིགསློབ	-8213
▁སྦྲེལགཏོད	-8214
▁སྦྲེལསྲིད	-8215
▁སྨི༤༠༠༠ཡན	-8216
▁གི༢༠༠༩ལོའི	-8217
▁གྲངས༡༢༠ཡིན	-8218
▁དེ༢༠༡༤ལོའི	-8219
▁ནས༢༠༡༦ལོའི	-8220
▁ནི༢༠༡༥ལོའི	-8221
▁ཟླ༡ཚེས༩ཉིན	-8222
▁ཟླ༦ཚེས༡ཉིན	-8223
▁རྨིད༤༠༠༠ཡན	-8224
▁ཀྱི༢༠༡༣ལོའི	-8225
▁ཀྱི༢༠༡༥ལོའི	-8226
▁གིས༢༠༡༣ལོའི	-8227
▁གྱི༢༠༡༥ལོའི	-8228
▁པའི༢༠༡༢ལོའི	-8229
▁པའི༢༠༡༣ལོའི	-8230
▁བའི༢༠༡༤ལོའི	-8231
▁ཟླ༡༡ཚེས༡ཉིན	-8232
▁ལའི༢༠༡༥ལོའི	-8233
▁ཀྱིས༢༠༡༤ལོའི	-8234
▁ལྗོངས༥༡༠༠གཏེར	-8235
༢པ	-8236
༤༡	-8237
༦པ	-8238
༩༢	-8239
ཁམ	-8240
ཅོ	-8241
ཆོ	-8242
ཟམ	-8243
ཡུ	-8244
རས	-8245
ཤད	-8246
ཧན	-8247
ཧམ	-8248
ེེ	-8249
ོོ	-8250
ྔྷ	-8251
ྟི	-8252
ྡལ	-8253
ྨི	-8254
ྩྭ	-8255
ྲག	-8256
༡༠༤	-8257
༡༡༡	-8258
༡༡༥	-8259
༡༢༩	-8260
༡༤༧	-8261
༡༧ལ	-8262
༡༨༤	-8263
༡༨པ	-8264
༡༩༣	-8265
༡༩པ	-8266
༡ནི	-8267
༢༡ལ	-8268
༢༩ལ	-8269
༣༤ལ	-8270
༣༦༧	-8271
༣༨༠	-8272
༣༨༧	-8273
༣༩༠	-8274
༤༦༦	-8275
༥༢༥	-8276
༥༤༥	-8277
༥༩ལ	-8278
༦༣ལ	-8279
༦༤༠	-8280
༦༩ལ	-8281
༦ལས	-8282
༧༠ལ	-8283
༧༢ལ	-8284
༧༧༨	-8285
༨༨ལ	-8286
༨༩༧	-8287
༨ལས	-8288
༩༡ལ	-8289
ཀྲང	-8290
ཀྲེ	-8291
ཁུར	-8292
ཁོག	-8293
ཁྲོ	-8294
གཟའ	-8295
གཡན	-8296
ཆགས	-8297
ཐེག	-8298
ཐེམ	-8299
དཀྱ	-8300
དམན	-8301
ཕུད	-8302
ཕུབ	-8303
ཕུར	-8304
བགོ	-8305
མནའ	-8306
ཚོར	-8307
ཞའོ	-8308
འཆི	-8309
འཇང	-8310
འབོ	-8311
ཡུག	-8312
ཡུང	-8313
ཡེར	-8314
རུལ	-8315
རྣག	-8316
ལའང	-8317
ལིས	-8318
ལྕམ	-8319
ལྡབ	-8320
ཤིས	-8321
ཤེལ	-8322
ཤོང	-8323
སའི	-8324
སིང	-8325
སེར	-8326
སོག	-8327
སྐེ	-8328
སྣམ	-8329
སྤར	-8330
ཧོང	-8331
ཨའེ	-8332
ོའོ	-8333
ོལྷ	-8334
ྐུལ	-8335
ྡེབ	-8336
ྡྷི	-8337
ྤུས	-8338
ྨོན	-8339
ྲིན	-8340
ྲོས	-8341
ླུང	-8342
▁༡པ	-8343
▁༡མ	-8344
▁༡ས	-8345
▁༦༣	-8346
▁༨༡	-8347
▁༨ལ	-8348
▁༩ལ	-8349
▁ཅས	-8350
▁ཅྭ	-8351
▁ཆ༢	-8352
▁ཆ༤	-8353
▁པ༦	-8354
▁པམ	-8355
▁བའ	-8356
▁ཝས	-8357
▁ཝྭ	-8358
▁ལ༡	-8359
▁སབ	-8360
༡༠བར	-8361
༡༢ལས	-8362
༡༣༦༤	-8363
༡༥༠ལ	-8364
༡༦ཙམ	-8365
༡༧༩༨	-8366
༡༧ནས	-8367
༡༨༠༠	-8368
༡༨ནས	-8369
༡༩༨༠	-8370
༡༩༩༩	-8371
༡༩ཡི	-8372
༡བོད	-8373
༢༠ནི	-8374
༢༦ཙམ	-8375
༢པའི	-8376
༢སྨན	-8377
༣༡གི	-8378
༣༡ནས	-8379
༣༡བར	-8380
༣༢དང	-8381
༣༥ལས	-8382
༣༩ཡི	-8383
༤༢ནས	-8384
༤༤དང	-8385
༤༥༨༧	-8386
༥༥དང	-8387
༥༧ཅན	-8388
༥པའི	-8389
༦༩དང	-8390
༦༩ནས	-8391
༧༥དང	-8392
༧གསར	-8393
༧བཅས	-8394
༨༠ཡི	-8395
༨༢༦༤	-8396
༨༥དང	-8397
༨༥ལོ	-8398
༩༥ནས	-8399
༩སྣེ	-8400
ཀྱིལ	-8401
ཀྲིག	-8402
ཁྱེར	-8403
ཁྲའོ	-8404
ཁྲེན	-8405
ཁྲོན	-8406
གདོད	-8407
གཡུལ	-8408
གཤེན	-8409
ཆུའི	-8410
དབྱང	-8411
དེམས	-8412
དྭངས	-8413
དྲིན	-8414
དྲུབ	-8415
པུའུ	-8416
ཕུགས	-8417
ཕྱེད	-8418
བགྲང	-8419
བཞིན	-8420
བལྟས	-8421
བཤམས	-8422
བསྡད	-8423
མགོན	-8424
མཆིན	-8425
མཐུད	-8426
ཙུགས	-8427
ཟླ༡༠	-8428
ཟློས	-8429
འཁྱག	-8430
འགོད	-8431
འགོས	-8432
འགྲམ	-8433
འདུལ	-8434
འཕགས	-8435
འཕུར	-8436
འོངས	-8437
རྒྱག	-8438
རྡུང	-8439
ལྷིང	-8440
ལྷུག	-8441
ལྷུང	-8442
སྡུད	-8443
སྡོད	-8444
ོབཅས	-8445
ྒྲོན	-8446
ྙོམས	-8447
ྤྲིན	-8448
ྦྱིན	-8449
▁༡༤༠	-8450
▁༡༤༧	-8451
▁༡༤༨	-8452
▁༡༦༤	-8453
▁༡༦༨	-8454
▁༡༦༩	-8455
▁༡ནད	-8456
▁༡རང	-8457
▁༢༢༧	-8458
▁༢༣༧	-8459
▁༢༤༥	-8460
▁༢༧༨	-8461
▁༢༩༠	-8462
▁༢བླ	-8463
▁༢རང	-8464
▁༢ལས	-8465
▁༣༡༩	-8466
▁༣༤༢	-8467
▁༣༤༤	-8468
▁༣༧༤	-8469
▁༣༨༠	-8470
▁༤༡༡	-8471
▁༤༦ལ	-8472
▁༤༨༠	-8473
▁༤མི	-8474
▁༥༣༧	-8475
▁༥༨༥	-8476
▁༥༩༠	-8477
▁༥མི	-8478
▁༦༤ལ	-8479
▁༦ཡན	-8480
▁༧༡༢	-8481
▁༧༩༨	-8482
▁༧༩༩	-8483
▁༧ཡང	-8484
▁༩༠༠	-8485
▁༩༨༥	-8486
▁༩ནས	-8487
▁༩ཡི	-8488
▁ཀའམ	-8489
▁ཀྱལ	-8490
▁ཁག༣	-8491
▁ཁག༦	-8492
▁ཁང༡	-8493
▁ཁངལ	-8494
▁ཁངས	-8495
▁ཁིལ	-8496
▁ཁེད	-8497
▁གམི	-8498
▁གའང	-8499
▁གལས	-8500
▁གལོ	-8501
▁གཤའ	-8502
▁གོོ	-8503
▁གྱམ	-8504
▁གྲར	-8505
▁ངའོ	-8506
▁ཆ༢༧	-8507
▁ཆ༩༨	-8508
▁ཆགཁ	-8509
▁ཆིར	-8510
▁ཆུག	-8511
▁ཏྲམ	-8512
▁ཏྲས	-8513
▁ཐིད	-8514
▁ཐིར	-8515
▁ཐུས	-8516
▁ཐྲེ	-8517
▁དངན	-8518
▁དམང	-8519
▁དམི	-8520
▁དའི	-8521
▁དརྗ	-8522
▁དིམ	-8523
▁དུན	-8524
▁དྷར	-8525
▁དྷེ	-8526
▁ན༡༢	-8527
▁ན༢༥	-8528
▁ནའེ	-8529
▁ནསཨ	-8530
▁ནིར	-8531
▁ནོང	-8532
▁པ༢༢	-8533
▁པ༢༧	-8534
▁པ༦༨	-8535
▁པདྭ	-8536
▁པམན	-8537
▁པསང	-8538
▁པོ༧	-8539
▁ཕོལ	-8540
▁བནས	-8541
▁བནི	-8542
▁བསག	-8543
▁བསོ	-8544
▁བིང	-8545
▁བྲབ	-8546
▁མ༣༣	-8547
▁མ༣༦	-8548
▁མ༤༠	-8549
▁མངོ	-8550
▁མངྒ	-8551
▁མདེ	-8552
▁མི༣	-8553
▁མུད	-8554
▁མྱེ	-8555
▁ཙའོ	-8556
▁ཙིན	-8557
▁ཙུག	-8558
▁ཙོན	-8559
▁ཚོ༣	-8560
▁ཝ༡༠	-8561
▁ཟུན	-8562
▁ཟེས	-8563
▁ཟློ	-8564
▁འགབ	-8565
▁འཆག	-8566
▁འདོ	-8567
▁འཕབ	-8568
▁ལཉྫ	-8569
▁ལདང	-8570
▁ལརྩ	-8571
▁ལལོ	-8572
▁ལལྷ	-8573
▁ལས༥	-8574
▁ལུལ	-8575
▁ལེ༢	-8576
▁ལེ༤	-8577
▁ལྡད	-8578
▁ལྦན	-8579
▁ཤཀྱ	-8580
▁ཤང་	-8581
▁ཤོབ	-8582
▁སོད	-8583
▁སྡད	-8584
▁སྣ༦	-8585
▁སྨེ	-8586
▁ཧུན	-8587
▁ཧུབ	-8588
▁ཧུལ	-8589
▁ཧུས	-8590
▁ཨརྒ	-8591
▁ཨུག	-8592
▁ཨུན	-8593
▁ཨུར	-8594
▁ཨོར	-8595
༠༠༥ནས	-8596
༠༠བྱས	-8597
༠༠ཡིས	-8598
༡༠༠ཟླ	-8599
༡༠༠ཡན	-8600
༡༠༠ལས	-8601
༡༡ལྷག	-8602
༡༦ཟིན	-8603
༡༩ཉིན	-8604
༢༠༠དང	-8605
༢༠༠ཡི	-8606
༢༣ཟིན	-8607
༢༤ཟིན	-8608
༢༧འཕར	-8609
༢༩བཏང	-8610
༢བྱུང	-8611
༢ལེགས	-8612
༣༦འཕར	-8613
༣༩ཟིན	-8614
༤༥ཡོད	-8615
༤༦ཟིན	-8616
༤༦ཡོད	-8617
༥༠༠ཡས	-8618
༥༠བཅས	-8619
༥༥ཡིན	-8620
༥སྟེང	-8621
༦༠ཡིན	-8622
༦༤འཕར	-8623
༦༧ཡིན	-8624
༦༩ཟིན	-8625
༦༩ཡོད	-8626
༦དངོས	-8627
༧༤ཟིན	-8628
༧༤ལོར	-8629
༧༥ཟིན	-8630
༧༥ཡོད	-8631
༧བཀོད	-8632
༨༥ཡོད	-8633
༨༧ཟིན	-8634
༨༩ཡིས	-8635
༩༢ཡོད	-8636
༩༤ཟིན	-8637
༩༤ཡིན	-8638
༩༥ཡོད	-8639
༩༦ཟིན	-8640
གཟིགས	-8641
གླེགས	-8642
དཀྱེལ	-8643
བརླགས	-8644
བསྐུར	-8645
བསྐོར	-8646
འབྲུམ	-8647
རྒྱུག	-8648
སྤྲུལ	-8649
སྦྱོང	-8650
སྦྲེལ	-8651
ུབདམས	-8652
▁༡༠༥༤	-8653
▁༡༠པར	-8654
▁༡༠རུ	-8655
▁༡༠ལས	-8656
▁༡༡ནང	-8657
▁༡༢ཡན	-8658
▁༡༣པར	-8659
▁༡༥ཡན	-8660
▁༡༦༩༦	-8661
▁༡༦གི	-8662
▁༡༨བར	-8663
▁༡༩དང	-8664
▁༡བོད	-8665
▁༡ཡིག	-8666
▁༢༠ནང	-8667
▁༢༣༠༠	-8668
▁༢༣དང	-8669
▁༢༥ནང	-8670
▁༢༦དང	-8671
▁༢༧དང	-8672
▁༢༨ནས	-8673
▁༢༨ཙམ	-8674
▁༢༩ཡི	-8675
▁༢ཀྱི	-8676
▁༢ཆོས	-8677
▁༢བཅས	-8678
▁༢རིམ	-8679
▁༣༠ནང	-8680
▁༣༡དང	-8681
▁༣༣༠༠	-8682
▁༣༦༠༠	-8683
▁༣གསར	-8684
▁༣རིང	-8685
▁༤༥༠༠	-8686
▁༥༠ནས	-8687
▁༥༡གི	-8688
▁༥རིང	-8689
▁༥ལྷག	-8690
▁༦༠དང	-8691
▁༦༠ནང	-8692
▁༦༠ཡན	-8693
▁༦༥དང	-8694
▁༦ཡིན	-8695
▁༦ལྷག	-8696
▁༧༥ཙམ	-8697
▁༧༦དང	-8698
▁༨༠དང	-8699
▁༨༠ཡི	-8700
▁༨གྱི	-8701
▁༩༠བར	-8702
▁ཀྱིམ	-8703
▁ཀྲེད	-8704
▁ཁག༡༠	-8705
▁ཁག༡༤	-8706
▁ཁག༢༢	-8707
▁ཁང༡༧	-8708
▁ཁངདུ	-8709
▁ཁབདང	-8710
▁ཁིའི	-8711
▁ཁུམས	-8712
▁ཁུའམ	-8713
▁ཁུའེ	-8714
▁ཁུལལ	-8715
▁ཁྱོམ	-8716
▁གཆོས	-8717
▁གཉྫི	-8718
▁གཏོག	-8719
▁གདོས	-8720
▁གཟའི	-8721
▁གཤོལ	-8722
▁གསུབ	-8723
▁གིལས	-8724
▁གྱིལ	-8725
▁གྱོས	-8726
▁གྲའོ	-8727
▁གླུང	-8728
▁ངགཆབ	-8729
▁ངོ༢༥	-8730
▁ཅནདུ	-8731
▁ཅེཏེ	-8732
▁ཅེའེ	-8733
▁ཆེའང	-8734
▁ཉིན༧	-8735
▁ཏུང་	-8736
▁ཏུན༦	-8737
▁ཏུའི	-8738
▁ཏེའོ	-8739
▁ཐོགཁ	-8740
▁ཐོགཨ	-8741
▁དགུའ	-8742
▁དགྲས	-8743
▁དངལྷ	-8744
▁དབུར	-8745
▁དབྲལ	-8746
▁དུརང	-8747
▁དུལོ	-8748
▁དེབཁ	-8749
▁དྷིས	-8750
▁ནཞེས	-8751
▁ནས༤པ	-8752
▁ནསཏང	-8753
▁ནསདྲ	-8754
▁ནསནང	-8755
▁ནསརང	-8756
▁ནིམི	-8757
▁ནོའི	-8758
▁པམཉམ	-8759
▁པཚུན	-8760
▁པའིན	-8761
▁པརལས	-8762
▁པོ༡༧	-8763
▁པོནི	-8764
▁ཕུབས	-8765
▁ཕྲེལ	-8766
▁བཀོས	-8767
▁བཏེག	-8768
▁བདགས	-8769
▁བདོག	-8770
▁བཞིག	-8771
▁བཟློ	-8772
▁བརལོ	-8773
▁བཤུར	-8774
▁བསྔག	-8775
▁བསྔས	-8776
▁བིའི	-8777
▁བུདང	-8778
▁བོའམ	-8779
▁བོའོ	-8780
▁བོརང	-8781
▁བླུར	-8782
▁བློང	-8783
▁མ༡༥༠	-8784
▁མ༢༠༠	-8785
▁མ༢༤༠	-8786
▁མཁའོ	-8787
▁མཆིག	-8788
▁མཐུང	-8789
▁མཐུར	-8790
▁མཐོས	-8791
▁མདགས	-8792
▁མཚུལ	-8793
▁མཛེར	-8794
▁མི༡༤	-8795
▁མི༡༧	-8796
▁མི༢༢	-8797
▁མིང་	-8798
▁མིའོ	-8799
▁མུའོ	-8800
▁མེདང	-8801
▁མྱིས	-8802
▁ཚེའང	-8803
▁ཚོ༣༥	-8804
▁ཚོད༡	-8805
▁ཚོསག	-8806
▁ཞིགས	-8807
▁ཞིའམ	-8808
▁ཞོགཐ	-8809
▁ཟླཔོ	-8810
▁ཟླའུ	-8811
▁འཁུན	-8812
▁འགོམ	-8813
▁འཆརལ	-8814
▁འཇིང	-8815
▁འཐིབ	-8816
▁འདངས	-8817
▁འདམར	-8818
▁འཕོང	-8819
▁འཕྲག	-8820
▁འཛིག	-8821
▁འོང་	-8822
▁འོབས	-8823
▁ཡངམི	-8824
▁ཡོའན	-8825
▁རབསཔ	-8826
▁རིའང	-8827
▁རེའམ	-8828
▁རྙིལ	-8829
▁རྟུག	-8830
▁རྡུར	-8831
▁རྨའི	-8832
▁རྩོག	-8833
▁ལེ༡༢	-8834
▁ལེ༡༧	-8835
▁ལོ༡༡	-8836
▁ལྔལག	-8837
▁ལྡབ༤	-8838
▁ལྡུག	-8839
▁ལྡེར	-8840
▁ལྩགས	-8841
▁ལྭའམ	-8842
▁ལྱེང	-8843
▁ལྷའུ	-8844
▁ལྷུམ	-8845
▁ཤུའུ	-8846
▁སིཨོ	-8847
▁སྐུན	-8848
▁སྐྱང	-8849
▁སྒྱི	-8850
▁སྙིམ	-8851
▁སྙུང	-8852
▁སྣ༦༨	-8853
▁སྤང་	-8854
▁སྤྱར	-8855
▁སྦྱད	-8856
▁སྦྲོ	-8857
▁སྨི༣	-8858
▁སྨེལ	-8859
▁སྨྲར	-8860
▁སྲིལ	-8861
▁སློད	-8862
▁ཧེའེ	-8863
༠༠སྤྲད	-8864
༡༠༠༠ཡས	-8865
༡༠༠བཅས	-8866
༡༠སྟེང	-8867
༡༣༠ཡོད	-8868
༡༥༠ཟིན	-8869
༢༠༠༠དང	-8870
༢༠༡༥བར	-8871
༢༤༩ཡོད	-8872
༢༨ཀྱིས	-8873
༤༠༠༠ལས	-8874
༤༦༤ཡོད	-8875
༤༩ལོའི	-8876
༥༠༠༠ཡས	-8877
༧སྐྱབས	-8878
༨སྐྱེལ	-8879
དངསྣོད	-8880
▁༡༠༠ཡས	-8881
▁༡༠བཅས	-8882
▁༡༡གསར	-8883
▁༡༢ཀྱི	-8884
▁༡༣ཡོད	-8885
▁༢༠༠ཡི	-8886
▁༢༢ཡོད	-8887
▁༢༣ཡོད	-8888
▁༢༨ཡོད	-8889
▁༢ཀྲུང	-8890
▁༢གཉིས	-8891
▁༣༠ཡིས	-8892
▁༣རྒྱལ	-8893
▁༤༠༠ནས	-8894
▁༤༥ཡོད	-8895
▁༤༦ཡོད	-8896
▁༥༠༠བར	-8897
▁༥༠༠ཡི	-8898
▁༦རྔུལ	-8899
▁༧༠ཡོད	-8900
▁༧༥བཏང	-8901
▁༨༠བའི	-8902
▁ཀྱི༢༠	-8903
▁ཀྱིཚད	-8904
▁ཀྲུའོ	-8905
▁ཀླུངས	-8906
▁ཁགསྐར	-8907
▁ཁགསྡེ	-8908
▁ཁང༡༠༠	-8909
▁ཁུལདང	-8910
▁ཁུལཡི	-8911
▁ཁྲི༥༤	-8912
▁ཁྲི༦༤	-8913
▁ཁྲི༦ལ	-8914
▁ཁྲི༨༧	-8915
▁ཁྲི༩༧	-8916
▁ཁྲིཙམ	-8917
▁ཁྲིཡི	-8918
▁ཁྲེ༤༥	-8919
▁ཁྲོའོ	-8920
▁གགཙུག	-8921
▁གཅིགཁ	-8922
▁གཅིགར	-8923
▁གཅིགལ	-8924
▁གཉེརད	-8925
▁གནསདང	-8926
▁གནོངས	-8927
▁གཞིའོ	-8928
▁གཞུངས	-8929
▁གཡུའི	-8930
▁གིསདེ	-8931
▁གིསལྷ	-8932
▁གོམཚོ	-8933
▁གྲྭགི	-8934
▁གླེངས	-8935
▁ངོལྷག	-8936
▁ཅནབཅས	-8937
▁ཆ༩༠ཡན	-8938
▁ཆ༩༥ཡན	-8939
▁ཆགཆོས	-8940
▁ཆགདོན	-8941
▁ཆགའཇུ	-8942
▁ཆགརྗེ	-8943
▁ཆའི༡༨	-8944
▁ཆའི༢༥	-8945
▁ཆའི༢༨	-8946
▁ཆའི༩༨	-8947
▁ཆིངསལ	-8948
▁ཆེནདང	-8949
▁ཆེནདུ	-8950
▁ཆེནནི	-8951
▁ཆོགགང	-8952
▁ཆོགལས	-8953
▁ཉིན༡༠	-8954
▁ཉིན༢༠	-8955
▁ཉིནནས	-8956
▁ཉིནཡི	-8957
▁ཏེགཤམ	-8958
▁ཏེརྒྱ	-8959
▁ཏོགདང	-8960
▁ཐེངས༥	-8961
▁ཐེངསས	-8962
▁དགོསཔ	-8963
▁དགྲོལ	-8964
▁དངཞིང	-8965
▁དངཞེས	-8966
▁དུཞེས	-8967
▁དེབནི	-8968
▁དེབཔར	-8969
▁དེབོད	-8970
▁དེཞེས	-8971
▁དེལོར	-8972
▁དོན༡༥	-8973
▁དྲེའུ	-8974
▁དྲོངས	-8975
▁ནལོའི	-8976
▁ནས༡༩༩	-8977
▁ནསམཉམ	-8978
▁པརགནད	-8979
▁པལེགས	-8980
▁པསཡུལ	-8981
▁པཧྲའོ	-8982
▁པོདེབ	-8983
▁པོཡིས	-8984
▁ཕྱེའི	-8985
▁བ༣ཚེས	-8986
▁བཀྱིག	-8987
▁བཀྲགས	-8988
▁བཀྲུང	-8989
▁བཏུངས	-8990
▁བདེའམ	-8991
▁བབྱེད	-8992
▁བཙོགས	-8993
▁བའིམི	-8994
▁བའིརྩ	-8995
▁བརབོད	-8996
▁བརྒྱུ	-8997
▁བརྙེན	-8998
▁བརྣངས	-8999
▁བལྟའི	-9000
▁བསེའི	-9001
▁བསྒོས	-9002
▁བསྔོས	-9003
▁བསྟབས	-9004
▁བསྡོད	-9005
▁བསྩོལ	-9006
▁བུཞེས	-9007
▁བོབོད	-9008
▁བྲོའང	-9009
▁བླུའི	-9010
▁བློའང	-9011
▁མ༡༠༠༠	-9012
▁མ༡༣༠༠	-9013
▁མཁོའང	-9014
▁མཆིམས	-9015
▁མཆོགས	-9016
▁མཚུམས	-9017
▁མཚོའམ	-9018
▁མསྟེང	-9019
▁མིབཅས	-9020
▁མིལྷག	-9021
▁མུའུ༥	-9022
▁མུའུ༦	-9023
▁མུའུ༨	-9024
▁ཚགསསུ	-9025
▁ཚིགས༢	-9026
▁ཚིགས༤	-9027
▁ཚེསབར	-9028
▁ཚོ༣༠༠	-9029
▁ཚོདདང	-9030
▁ཞིགལྷ	-9031
▁འཁྱོམ	-9032
▁འཁྲིལ	-9033
▁འགྱེར	-9034
▁འགྲེན	-9035
▁འཆརལས	-9036
▁འཇུངས	-9037
▁འཐོགས	-9038
▁འདུགཞ	-9039
▁འདྲའང	-9040
▁འདྲུལ	-9041
▁འཕྱངས	-9042
▁འཕྱིད	-9043
▁འབྲིག	-9044
▁འབྲིད	-9045
▁འབྲིམ	-9046
▁འབྲིར	-9047
▁འབྲིས	-9048
▁འབྲོལ	-9049
▁འཛུམས	-9050
▁འོགལོ	-9051
▁ཡིགམི	-9052
▁རབས༧༠	-9053
▁རབསསུ	-9054
▁རིགལོ	-9055
▁རིགས༦	-9056
▁རིགས༨	-9057
▁རྒྱའང	-9058
▁རྒྱའུ	-9059
▁རྒྱོབ	-9060
▁རྗེའམ	-9061
▁རྙིགས	-9062
▁རྟགས༣	-9063
▁རླུངས	-9064
▁ལསབོད	-9065
▁ལསཞེས	-9066
▁ལསེམས	-9067
▁ལོ༣ནང	-9068
▁ལོགདེ	-9069
▁ལོགརྨ	-9070
▁ལོང༡༧	-9071
▁ལོཞེས	-9072
▁ལོལྷག	-9073
▁ལྟེབས	-9074
▁ལྡེའི	-9075
▁ལྦུའུ	-9076
▁ལྷནལས	-9077
▁ལྷུགས	-9078
▁སརཞེས	-9079
▁སརརིག	-9080
▁སུཞེས	-9081
▁སྐུ༣༥	-9082
▁སྐུའང	-9083
▁སྐུའོ	-9084
▁སྐོའུ	-9085
▁སྐྱིས	-9086
▁སྒོར༩	-9087
▁སྡེའམ	-9088
▁སྨི༣༣	-9089
▁སྨི༤༦	-9090
▁སྨྱོས	-9091
▁སྲིངས	-9092
▁སླེངས	-9093
▁སླེའུ	-9094
▁ཧྲེའུ	-9095
༠༠༠བསྡུ	-9096
༡༡༡༧སྣེ	-9097
༡༨༠༠ལྷག	-9098
༢༠༠༧ལོར	-9099
༢༠༢༠ལོར	-9100
བསྒྲིགས	-9101
ཚེས༧ཉིན	-9102
▁༡༠༠༠ཡན	-9103
▁༡༡༧འཕར	-9104
▁༡༢༠ལྷག	-9105
▁༡༩༥༡ལོ	-9106
▁༡༩༧༨ལོ	-9107
▁༡༩༩༠ལོ	-9108
▁༡༩༩༤ལོ	-9109
▁༡༩༩༩ལོ	-9110
▁༢༠སྣོན	-9111
▁༢༨༠ལྷག	-9112
▁༢སྒྲིག	-9113
▁༣༠༢སྨན	-9114
▁༣༡༧གྱི	-9115
▁༤༠༠༠ཙམ	-9116
▁༤༣༠༠ནས	-9117
▁༤ནས༧བར	-9118
▁༥༠༠༠བར	-9119
▁ཀྱངསྐད	-9120
▁ཀྱིགཙང	-9121
▁ཀྱིདཔང	-9122
▁ཀྱིཡུལ	-9123
▁ཀྱིསདེ	-9124
▁ཀྱིསྐད	-9125
▁ཁགཀྲུང	-9126
▁ཁགསྔོན	-9127
▁ཁུངས༡༣	-9128
▁ཁོསའདི	-9129
▁ཁྱེརགི	-9130
▁ཁྱེརདུ	-9131
▁ཁྲི༡༠ལ	-9132
▁ཁྲི༣༠༠	-9133
▁ཁྲི༤༠༠	-9134
▁གཅིགནས	-9135
▁གཅིགཤང	-9136
▁གཏོངགི	-9137
▁གཏོངདང	-9138
▁གཞིབཅས	-9139
▁གཞིའིཆ	-9140
▁གིསགཤམ	-9141
▁གིསགསར	-9142
▁གོརྒྱལ	-9143
▁གྱིཆོས	-9144
▁གྱིཟིན	-9145
▁གྲངས༡༨	-9146
▁གྲངསདང	-9147
▁གྲངསདེ	-9148
▁གྲསའཛམ	-9149
▁གྲྭ༡༡ལ	-9150
▁ངོ༣༠ཡི	-9151
▁ངོ༨རིང	-9152
▁ངོའཁོར	-9153
▁ཅིགཁྱད	-9154
▁ཅིགཅེས	-9155
▁ཆགསྐོར	-9156
▁ཆོགགོང	-9157
▁ཆོགམིང	-9158
▁ཆོགཟེར	-9159
▁ཆོསལྷག	-9160
▁ཉིན༢༠༠	-9161
▁ཏུནལྷག	-9162
▁ཐརསོགས	-9163
▁ཐིསུའུ	-9164
▁ཐེངས༡༥	-9165
▁དགའགནང	-9166
▁དཔེཞེས	-9167
▁དབངཤིན	-9168
▁དུབྱེད	-9169
▁དུསྲོལ	-9170
▁དུསློབ	-9171
▁དེརྒྱལ	-9172
▁དེལོའི	-9173
▁ནས༢༠༣༠	-9174
▁ནསགྲོང	-9175
▁ནསཚོགས	-9176
▁ནུསཀྱི	-9177
▁པ༢༠ལྷག	-9178
▁པ༣༠ལྷག	-9179
▁པའིགངས	-9180
▁པའིགསར	-9181
▁པའིཇུས	-9182
▁པའིཐོན	-9183
▁པའིབཀྲ	-9184
▁པའིམཐོ	-9185
▁པའིཞིང	-9186
▁པའིརིམ	-9187
▁པའིལྡབ	-9188
▁པའིལྷོ	-9189
▁པརསྟེང	-9190
▁པརྒྱུན	-9191
▁པསཀྲུང	-9192
▁པོརྩོམ	-9193
▁ཕྱུགདང	-9194
▁ཕྱུར༠༩	-9195
▁ཕྱུར༣༣	-9196
▁ཕྱུར༣༦	-9197
▁ཕྱུར༥༤	-9198
▁ཕྱུར༥༥	-9199
▁ཕྱུར༦༧	-9200
▁ཕྱུར༩༠	-9201
▁ཕྱུརལས	-9202
▁བཅསགཤམ	-9203
▁བཞིཞེས	-9204
▁བཟངའཛམ	-9205
▁བའིགཏམ	-9206
▁བའིམཐའ	-9207
▁བའིའདུ	-9208
▁བའིརྣམ	-9209
▁བརབྱེད	-9210
▁བརྒྱུན	-9211
▁བཤདབོད	-9212
▁བསྒུགས	-9213
▁བསྔོགས	-9214
▁བསྟིམས	-9215
▁བྱསམཚོ	-9216
▁མཁནགྱི	-9217
▁མཛོདཔར	-9218
▁མོརྩོམ	-9219
▁མོསྔོན	-9220
▁ཚགསཀྱི	-9221
▁ཚིགས༡༠	-9222
▁ཚེས༢ནས	-9223
▁ཞིགབོད	-9224
▁ཟླ༡༡ནས	-9225
▁འདུགཁྲ	-9226
▁འདུགགང	-9227
▁འདུགཇི	-9228
▁འདུགདང	-9229
▁འདུགནང	-9230
▁འདུགབུ	-9231
▁འདུགམེ	-9232
▁འདུགཡི	-9233
▁འདུགལན	-9234
▁འདུགལི	-9235
▁འདྲཟེར	-9236
▁འདྲུའི	-9237
▁ཡིགཞེས	-9238
▁རིགགནའ	-9239
▁རིགབཟོ	-9240
▁རིགས༡༠	-9241
▁རིགས༡༡	-9242
▁རྒྱནདང	-9243
▁རྒྱུནི	-9244
▁རྗེསལས	-9245
▁རྨིད༤༥	-9246
▁རྩོམགེ	-9247
▁རྫོང༧༤	-9248
▁ལས༡༥ལས	-9249
▁ལོ༣༠ཡི	-9250
▁ལོ༣རིང	-9251
▁ལོ༦༠ཡན	-9252
▁ལོསྟེང	-9253
▁ལྟརལོར	-9254
▁ཤོགགངས	-9255
▁ཤོགཅེས	-9256
▁ཤོགབོད	-9257
▁སརདམངས	-9258
▁སིདྡྷི	-9259
▁སུསློབ	-9260
▁སྐརཁུལ	-9261
▁སྐྱིབས	-9262
▁སྐྱོའི	-9263
▁སྒོར༢༩	-9264
▁སྒོར༤༩	-9265
▁སྒྱེའི	-9266
▁སྒྲཞེས	-9267
▁སྟོནདང	-9268
▁སྦྱོང་	-9269
▁སྲོལདང	-9270
༢༠༠༤ལོའི	-9271
༢༠༠༥ལོའི	-9272
༢༠༡༡༢༠༣༠	-9273
༣༦༠༠སྔོན	-9274
▁༡༠འཛུགས	-9275
▁༡༡༠༠ལྷག	-9276
▁༡༡༣༡ཟིན	-9277
▁༡༢༠༦ལོར	-9278
▁༡༧༠༠ལྷག	-9279
▁༡༧༠༩ལོར	-9280
▁༡༩༤༩ལོར	-9281
▁༡༩༥༥ལོར	-9282
▁༡༩༦༣ལོར	-9283
▁༡༩༧༠ལོར	-9284
▁༢༠༡༧ལོར	-9285
▁༢༠༡༨ལོར	-9286
▁༢༠༣༠ལོར	-9287
▁༢༣༠༠ལྷག	-9288
▁༨༠༠༠ལྷག	-9289
▁ཀྱི༥༡༠༠	-9290
▁ཀྱིཚོགས	-9291
▁ཀྱིརྒྱལ	-9292
▁ཀྱིསགསར	-9293
▁ཀྱིསའཛམ	-9294
▁ཀྱིསྤྱི	-9295
▁ཁུལཁོངས	-9296
▁ཁྱེརཁུལ	-9297
▁ཁྲི༡༧ལས	-9298
▁ཁྲི༢༣༠༠	-9299
▁ཁྲི༢༧༩ལ	-9300
▁ཁྲིམསནང	-9301
▁གཅིགགསོ	-9302
▁གཅུནགྱི	-9303
▁གཉིསརྣམ	-9304
▁གཏོདཅེས	-9305
▁གསུམཔའི	-9306
▁གིཁྲིམས	-9307
▁གིསསྤྱི	-9308
▁གྱིཀྲུང	-9309
▁གྱིསཀྱི	-9310
▁གྱིསཉིང	-9311
▁གྱིསབདེ	-9312
▁གྱིསམཚོ	-9313
▁གྱིསསྨན	-9314
▁གྲངས༡༠༠	-9315
▁གྲངས༢༢༦	-9316
▁གྲངས༣༠༠	-9317
▁གྲངས༣༢༣	-9318
▁གྲངསགསར	-9319
▁གླུསོགས	-9320
▁ངོ༡༤རིང	-9321
▁ངོ༦༠ལྷག	-9322
▁ཅིགཀྲུང	-9323
▁ཅིགརྒྱལ	-9324
▁ཆིངསཀྱི	-9325
▁ཆེནསོགས	-9326
▁ཆོགཐེངས	-9327
▁ཆོགདེའི	-9328
▁ཉིན༣རིང	-9329
▁ཉིན༦རིང	-9330
▁ཉིནཀྲུང	-9331
▁ཏོགཀྲུང	-9332
▁ཐབསཀྱིས	-9333
▁ཐབསབཏོན	-9334
▁ཐབསསྤྱད	-9335
▁ཐིགགློག	-9336
▁དགོསཅེས	-9337
▁པའིདཔྱད	-9338
▁པའིམཇུག	-9339
▁པོའིསྐལ	-9340
▁ཕྱུརདོན	-9341
▁བཅུབདམས	-9342
▁བདུནགྱི	-9343
▁བཞིལསརྩ	-9344
▁བརྗོདལས	-9345
▁བྱུགགཞན	-9346
▁བྱེདཞེས	-9347
▁བྲོའཁྲབ	-9348
▁མཛོདའདི	-9349
▁མིའིམཚན	-9350
▁ཙུའུཀྱི	-9351
▁ཚགསའདིར	-9352
▁ཚེས༡༤ནས	-9353
▁ཚེས༡༥ནས	-9354
▁ཚེས༢༨ནས	-9355
▁ཚེས༣༡བར	-9356
▁ཚོགསཞེས	-9357
▁ཚོད༡༧དང	-9358
▁ཚོད༢༠ནས	-9359
▁ཟླ༡༠༠ཟླ	-9360
▁འགྱུརནི	-9361
▁འཇུགཆོས	-9362
▁འཇུགཞེས	-9363
▁འདུགཀོང	-9364
▁འདུགགནམ	-9365
▁འདུགགནའ	-9366
▁འདུགདཔལ	-9367
▁འདུགདབུ	-9368
▁འདུགཔོད	-9369
▁འདུགབཀའ	-9370
▁འདུགབཀྲ	-9371
▁འདུགཞབས	-9372
▁འདུགཡུན	-9373
▁འདུགརྒན	-9374
▁འདུགལྷོ	-9375
▁འཕེལཞེས	-9376
▁འོགཁྱོན	-9377
▁འོགརྒྱལ	-9378
▁ཡིགསྐོར	-9379
▁ཡིསརྒྱལ	-9380
▁ཡོསསྤྱི	-9381
▁རབས༡༢བར	-9382
▁རྒྱུདདུ	-9383
▁རྒྱུདམན	-9384
▁རྒྱུབཅས	-9385
▁རྒྱུམཐའ	-9386
▁རྒྱུསདང	-9387
▁རྫོངརིམ	-9388
▁ལུགསབོད	-9389
▁ལུགསསྨན	-9390
▁ལུགསཧུང	-9391
▁ལེགསཞེས	-9392
▁ལོ༢༠༠ཡི	-9393
▁ལོ༢༠རིང	-9394
▁ལོ༣༥ཡིན	-9395
▁ལོ༩༠རེད	-9396
▁ལྷནདྲུབ	-9397
▁སེམསམཐའ	-9398
▁སྒོར༡༩༨	-9399
▁སྒྲིགདང	-9400
▁སྒྲིགཔར	-9401
▁སྒྲུངགི	-9402
▁སྟོབསདང	-9403
▁སྟོབསདར	-9404
▁སྤྲེའུས	-9405
▁སྦྱོངགི	-9406
▁སྦྲེལདང	-9407
▁༡༢༣༤༥ཆེད	-9408
▁༡༩༣༣ལོའི	-9409
▁༡༩༦༡ལོའི	-9410
▁༡༩༦༢ལོའི	-9411
▁༡༩༧༢ལོའི	-9412
▁༡༩༨༡ལོའི	-9413
▁༡༩༨༤ལོའི	-9414
▁ཀྱིཕྱོགས	-9415
▁ཀྱིརྒྱུད	-9416
▁ཁྲི༡༠༠ཡི	-9417
▁ཁྲི༡༢ལྷག	-9418
▁ཁྲི༧༠ལྷག	-9419
▁ཁྲིམསགསར	-9420
▁གཅིགགྲོང	-9421
▁གཅིགའདིར	-9422
▁གཅིགའཕེལ	-9423
▁གསུམདངུལ	-9424
▁གྱིསགཅིག	-9425
▁གྱིསགྲོང	-9426
▁གྲྭའིརྣམ	-9427
▁ངོ༥༠འཁོར	-9428
▁ཆའི༦༨ཟིན	-9429
▁ཆེནལྗོངས	-9430
▁ཉིན༡༥ཡིན	-9431
▁ཐབསསྤྱོད	-9432
▁ནས༢༠༡༥བར	-9433
▁པ༡༠༠༠ལྷག	-9434
▁པའིདཔྱིད	-9435
▁པའིབརྗོད	-9436
▁ཕྱུར༡༠ལས	-9437
▁ཕྱུར༡ལྷག	-9438
▁ཕྱུར༧གནང	-9439
▁བཞིརྒྱུག	-9440
▁བསྒྲགསལས	-9441
▁བསྡུསཞེས	-9442
▁མགྲིནབོད	-9443
▁མཛོདརྩོམ	-9444
▁ཚོ༡༠༠༠གི	-9445
▁ཚོད༢༤རིང	-9446
▁འཇོགཀྲུང	-9447
▁འདུགགཞིས	-9448
▁འདུགགཞུང	-9449
▁འདུགགློག	-9450
▁འདུགདེའང	-9451
▁འདུགབྱིས	-9452
▁འདུགམཛེས	-9453
▁འདུགཚོགས	-9454
▁འདུགཝུའུ	-9455
▁འདུགའཁྲབ	-9456
▁འདུགརྗེས	-9457
▁འདུགསྐྱེ	-9458
▁འབུམ༣ལྷག	-9459
▁འབུམསོགས	-9460
▁རབས༡༩པའི	-9461
▁རབས༢༡པའི	-9462
▁རབས༩༠པའི	-9463
▁རྒྱུདཅེས	-9464
▁རྒྱུདཕྱི	-9465
▁རྒྱུདབཅས	-9466
▁རྒྱུདའདི	-9467
▁རྒྱུསཞེས	-9468
▁ལམབརྒྱུད	-9469
▁ལེ༢༥༣ཡོད	-9470
▁ལོ༢༠༡༡ལོ	-9471
▁ལོ༣༠འཁོར	-9472
▁ལོ༥༥འཁོར	-9473
▁ལོའིཀྲུང	-9474
▁ལྡབ༡༠ཡིས	-9475
▁སྐྱོངབདེ	-9476
▁སྒོར༡༢༠༠	-9477
▁སྒྲིགབོད	-9478
▁སྒྲིགཞིབ	-9479
▁སྒྲུངཞེས	-9480
▁སྒྲོགགསར	-9481
▁སྟེགསཀྱི	-9482
▁སྣ༢༠༠ལྷག	-9483
▁སྤྱོདབཅས	-9484
▁སྤྲེའུའི	-9485
▁སྦྱོརཞེས	-9486
▁ཁྲིམསསོགས	-9487
▁ཕྱུར༡༥བཏང	-9488
▁བརླགབརླགས	-9489
▁བསྐྱོདཅེས	-9490
▁བསྒྲིགསདག	-9491
▁ཚོ༡༠༠༠ལྷག	-9492
▁ཚོད༡༠སྟེང	-9493
▁འཁོར༦༠ལོན	-9494
▁འདུགཁྲིམས	-9495
▁འདུགའགྲེམ	-9496
▁འདུགསྐྱེས	-9497
▁འབྲེལསོགས	-9498
▁རྒྱུདགཉིས	-9499
▁རྒྱུའིབླང	-9500
▁རྒྱུའིའགན	-9501
▁ལོ༡༣༤༢ལོར	-9502
▁ལོ༡༤༠༩ལོར	-9503
▁ལོ༡༩༥༨ལོར	-9504
▁ལོ༡༩༩༨ལོར	-9505
▁ལོ༢༠༠༠ལོར	-9506
▁ལོ༢༠༠༦ལོར	-9507
▁ལོ༢༠༠༧ལོར	-9508
▁ལོ༢༠༠༨ལོར	-9509
▁ལོའིལྗོངས	-9510
▁སའི༣༡༤དོན	-9511
▁སྒོར༢༠༠ཇེ	-9512
▁སྒྲིགལེགས	-9513
▁སྒྲིགསོགས	-9514
▁སྒྲིགསྐུལ	-9515
▁ཁྲི༣༠༠༠ལྷག	-9516
▁གི༢༠༡༡ལོའི	-9517
▁ཐོ༢༠༡༤ལོའི	-9518
▁དང༢༠༡༢ལོའི	-9519
▁ནས༢༠༠༥ལོའི	-9520
▁བརྩེགས༥༧ཅན	-9521
▁མུའུ༣༠༠ལྷག	-9522
▁འདུགཟླ༧པའི	-9523
▁འབྲིངའབྲིང	-9524
▁རྒྱུདདངབཤད	-9525
▁ལོ༡༩༨༠ལོའི	-9526
▁ལོ༡༩༩༤ལོའི	-9527
▁སྨི༤༥༠༠ཡོད	-9528
༢༠༡༡༢༠༣༠ལོའི	-9529
▁ཁྲི༤༡༡༡༧སྣེ	-9530
▁གིས༢༠༡༥ལོའི	-9531
▁གྲངས༨༠༠༠ལྷག	-9532
▁པའི༢༠༡༥ལོའི	-9533
▁ཕྱུར༣༠༠གཏོང	-9534
▁ཕྱུར༤༦༦དངོས	-9535
▁ཟླ༡༢ཚེས༡ཉིན	-9536
▁ཟླ༦ཚེས༢༧ཉིན	-9537
▁འཆར༢༠༡༤ལོའི	-9538
▁འདུག༢༠༡༤ལོར	-9539
▁ཀྱིས༢༠༡༡ལོའི	-9540
▁ཀྱིས༢༠༡༢ལོའི	-9541
▁ལྗོངས༢༠༡༣ཆེད	-9542
▁ཟླ༡༢པའིཚེས༡༢ཉིན	-9543
༥པ	-9544
༦ག	-9545
༦མ	-9546
༧པ	-9547
ཀི	-9548
གམ	-9549
ངམ	-9550
ཆག	-9551
ཆད	-9552
ཆན	-9553
ཉག	-9554
ཉན	-9555
ཐུ	-9556
ནའ	-9557
ནོ	-9558
པྲ	-9559
ཕག	-9560
ཕར	-9561
བན	-9562
མལ	-9563
ཝར	-9564
ཝུ	-9565
ཞག	-9566
ཞེ	-9567
ཟད	-9568
ཟེ	-9569
ཡབ	-9570
ཧེ	-9571
ྒད	-9572
ྡོ	-9573
ློ	-9574
ྷི	-9575
༠༩༧	-9576
༠ནས	-9577
༡༠ས	-9578
༡༢༣	-9579
༡༤༨	-9580
༡༥༦	-9581
༡༦༤	-9582
༡༧༥	-9583
༡༧པ	-9584
༡ཡས	-9585
༢༠༨	-9586
༢༢༤	-9587
༢༣༥	-9588
༢༤༠	-9589
༢༤༩	-9590
༢༦༡	-9591
༢༦༧	-9592
༢༨༩	-9593
༢༩༩	-9594
༢ནང	-9595
༢ནི	-9596
༢མར	-9597
༣༠༡	-9598
༣༦༩	-9599
༣ལས	-9600
༤༠༨	-9601
༤༣༢	-9602
༤༥ལ	-9603
༤༧༧	-9604
༤༧པ	-9605
༤མར	-9606
༤རུ	-9607
༥༡ལ	-9608
༥༦༧	-9609
༥༩༩	-9610
༥ཡས	-9611
༦༢ལ	-9612
༦༣༤	-9613
༦༤༩	-9614
༦༥༠	-9615
༦༦ལ	-9616
༧༣༦	-9617
༧༧༠	-9618
༧དུ	-9619
༧ནི	-9620
༨༤༨	-9621
༨༩ལ	-9622
༩༡༡	-9623
༩ཙམ	-9624
༩རུ	-9625
༩ལས	-9626
ཀའེ	-9627
ཀོད	-9628
ཀྲི	-9629
ཀྲུ	-9630
ཀླད	-9631
ཁུག	-9632
གཞལ	-9633
ངུལ	-9634
ཅུས	-9635
ཅོས	-9636
ཆའི	-9637
ཏིང	-9638
ཏོག	-9639
ཐའེ	-9640
ཐིག	-9641
ཐོལ	-9642
དབལ	-9643
དུར	-9644
ནོད	-9645
ནོམ	-9646
པེར	-9647
པྱད	-9648
ཕིང	-9649
ཕྱེ	-9650
བཅར	-9651
བསུ	-9652
བསེ	-9653
བུང	-9654
བླུ	-9655
མངལ	-9656
མཐང	-9657
མའེ	-9658
མིས	-9659
མུན	-9660
ཙོང	-9661
ཚངས	-9662
ཚབས	-9663
ཚིལ	-9664
ཝུན	-9665
ཞོན	-9666
ཟླ༡	-9667
ཟླ༩	-9668
འཆལ	-9669
འཐག	-9670
འབག	-9671
འབབ	-9672
འབའ	-9673
འོང	-9674
འོལ	-9675
▁	-9676
ས	-9677
ག	-9678
ོ	-9679
ི	-9680
ད	-9681
བ	-9682
ང	-9683
ར	-9684
ུ	-9685
ན	-9686
ྱ	-9687
འ	-9688
ལ	-9689
ེ	-9690
མ	-9691
པ	-9692
ྲ	-9693
ཁ	-9694
ཀ	-9695
ཡ	-9696
ྒ	-9697
ཞ	-9698
ཚ	-9699
ཆ	-9700
ཐ	-9701
ྐ	-9702
ཕ	-9703
ཅ	-9704
ྟ	-9705
ླ	-9706
ཏ	-9707
ཤ	-9708
ྤ	-9709
ཉ	-9710
ཟ	-9711
ྗ	-9712
ྡ	-9713
ྣ	-9714
ྩ	-9715
ཇ	-9716
ཛ	-9717
ཙ	-9718
ྷ	-9719
ྔ	-9720
༠	-9721
༡	-9722
ྨ	-9723
ཧ	-9724
ྭ	-9725
ྙ	-9726
༢	-9727
ཨ	-9728
ྦ	-9729
ྫ	-9730
༣	-9731
༥	-9732
༤	-9733
༩	-9734
༨	-9735
༦	-9736
༧	-9737
་	-9738
ྕ	-9739
ཝ	-9740
